{"clans": 16411, "hiroshima": 20168, "345": 23785, "survive": 5788, "look": 2298, "optional": 11887, "soviet": 3354, "smith": 3044, "unconscious": 9787, "##fide": 20740, "##北": 30307, "awoke": 19179, "takes": 3138, "pitted": 25895, "parted": 10277, "##ᄏ": 30002, "##»": 29663, "dangerous": 4795, "kobe": 24113, "variable": 8023, "##kken": 24192, "waldo": 28806, "temporary": 5741, "berkshire": 15570, "pre": 3653, "psychic": 12663, "deity": 12764, "wallace": 7825, "##光": 30296, "aiding": 24791, "hove": 25215, "likely": 3497, "##icative": 25184, "assistants": 16838, "##止": 30413, "decreed": 28447, "##rit": 14778, "combo": 25025, "teaches": 12011, "juliette": 24696, "##child": 19339, "paolo": 14174, "skirt": 9764, "243": 22884, "noteworthy": 19144, "respect": 4847, "cyrus": 16123, "[unused147]": 152, "34": 4090, "14": 2403, "geese": 28519, "civil": 2942, "forum": 7057, "thunder": 8505, "identical": 7235, "fontana": 27182, "bane": 25163, "doug": 8788, "##ference": 25523, "straightened": 11168, "bulldog": 28628, "joseph": 3312, "ceded": 19705, "bearing": 7682, "recession": 19396, "##lins": 24412, "fluent": 19376, "flinched": 19201, "getting": 2893, "primarily": 3952, "cylinder": 7956, "fundamentally": 24670, "examine": 11628, "##tor": 4263, "上": 1742, "##biology": 21685, "genealogy": 26684, "##anza": 16076, "technological": 10660, "council": 2473, "##isches": 27239, "leaps": 29195, "burrows": 22009, "##省": 30446, "scorer": 10835, "appalled": 29279, "expectation": 17626, "rub": 14548, "dunlop": 27458, "somerville": 27209, "dale": 8512, "agreed": 3530, "chiefs": 9058, "spa": 12403, "isle": 8842, "##ᵐ": 30038, "convinced": 6427, "addresses": 11596, "##itis": 13706, "##ե": 29770, "cd": 3729, "##cased": 28969, "trauma": 12603, "示": 1923, "##aer": 27867, "fated": 27442, "lined": 7732, "litres": 25783, "prophecy": 14951, "[unused678]": 683, "hms": 7220, "remixes": 15193, "backward": 8848, "##ato": 10610, "ك": 1293, "correction": 18140, "tension": 6980, "healy": 25706, "gunnery": 27919, "mainstream": 7731, "joked": 19700, "zeppelin": 22116, "##ore": 5686, "##la": 2721, "grin": 5861, "dung": 29328, "clenched": 8555, "withdrew": 6780, "lore": 19544, "cheating": 16789, "shandong": 25768, "auto": 8285, "accordance": 10388, "##ᵥ": 30045, "cuthbert": 24583, "1902": 5774, "##er": 2121, "boost": 12992, "decatur": 27783, "germany": 2762, "##kind": 18824, "1723": 26621, "##hell": 18223, "comeback": 12845, "beetles": 14538, "##ノ": 30243, "albrecht": 25542, "penetrated": 21653, "ornate": 18099, "anatolia": 23747, "tao": 20216, "1782": 16890, "publishing": 4640, "pradesh": 7970, "##iste": 27870, "[unused969]": 974, "つ": 1664, "advise": 18012, "massimo": 28080, "controlled": 4758, "pivotal": 20369, "smoking": 9422, "龍": 1982, "£1": 14534, "suburban": 9282, "militia": 8396, "principle": 6958, "suggesting": 9104, "rain": 4542, "loire": 20399, "arose": 10375, "companions": 11946, "gorge": 14980, "eugen": 29273, "‑": 1514, "ty": 5939, "##ᅦ": 30009, "[unused22]": 23, "nation": 3842, "##nath": 16207, "sino": 19432, "trailer": 9117, "veins": 9607, "##linger": 23101, "##meo": 26247, "newt": 25597, "star": 2732, "pinyin": 9973, "[unused780]": 785, "##yon": 14001, "mundo": 25989, "[unused696]": 701, "##edging": 28002, "##acies": 20499, "lion": 7006, "uploaded": 21345, "journalist": 4988, "1780": 15051, "built": 2328, "fists": 10006, "caressing": 25296, "condemn": 28887, "1990s": 4134, "routed": 19578, "##nis": 8977, "cambodian": 24417, "17": 2459, "gunpowder": 22220, "exception": 6453, "syrian": 9042, "##litz": 24725, "seam": 25180, "365": 19342, "goodman": 14514, "muzzle": 17750, "scents": 29254, "titan": 16537, "##sha": 7377, "##ai": 4886, "##ल": 29870, "vamps": 24064, "mic": 23025, "access": 3229, "##box": 8758, "became": 2150, "maia": 23478, "##ailing": 29544, "##ita": 6590, "##inging": 23180, "tuned": 15757, "considerably": 9839, "airport": 3199, "opinion": 5448, "[unused372]": 377, "complicated": 8552, "removal": 8208, "ba": 8670, "##bach": 7693, "##nea": 22084, "##eptive": 22048, "[unused72]": 73, "##oped": 24174, "restaurants": 7884, "silas": 18553, "##ar": 2906, "##18": 15136, "##ivist": 21997, "##cliff": 27580, "epstein": 26646, "julius": 10396, "##nbc": 28957, "contemplating": 25247, "caused": 3303, "425": 23285, "[unused151]": 156, "airfield": 9087, "hi": 7632, "overlooking": 12549, "prosecuted": 21651, "mort": 22294, "empress": 10248, "19": 2539, "scoring": 4577, "racist": 16939, "գ": 1221, "toro": 23790, "xbox": 12202, "slalom": 19617, "energies": 19320, "##ᶠ": 30047, "doubts": 13579, "##overs": 24302, "##umb": 25438, "greenish": 23753, "antiquity": 16433, "trombone": 13914, "fry": 14744, "lee": 3389, "stream": 5460, "successes": 14152, "bushes": 14568, "sealed": 10203, "[unused29]": 30, "sleeping": 5777, "destroyer": 9799, "colours": 8604, "##hn": 7295, "plasma": 12123, "subtly": 28797, "##arm": 27292, "indicted": 21801, "信": 1767, "cocoa": 22940, "chooses": 15867, "repair": 7192, "collapsed": 7798, "opponents": 7892, "##tile": 15286, "reed": 7305, "newscasts": 24482, "emilio": 18644, "interiors": 20769, "day": 2154, "leases": 29597, "assumptions": 17568, "31st": 17089, "1758": 16832, "terminus": 7342, "##ack": 8684, "personnel": 5073, "lottery": 15213, "evaluated": 16330, "cobb": 17176, "hazel": 14015, "ezra": 16245, "flags": 9245, "langley": 19094, "lose": 4558, "occupations": 23374, "inspect": 22459, "serra": 22737, "algae": 18670, "ago": 3283, "##zier": 21548, "breakthrough": 12687, "vc": 18315, "gazes": 23514, "mergers": 28585, "safeguard": 28805, "人": 1756, "accusation": 19238, "49": 4749, "isn": 3475, "fivb": 28423, "limerick": 15679, "savings": 10995, "restraints": 28054, "positions": 4460, "ᄑ": 1468, "animator": 25132, "geo": 20248, "sighing": 19381, "##mbs": 29232, "revolves": 19223, "parking": 5581, "infection": 8985, "kazan": 22001, "法": 1901, "flying": 3909, "ep": 4958, "296": 27200, "download": 8816, "burned": 5296, "say": 2360, "orioles": 18893, "incarcerated": 23995, "colonies": 8355, "morocco": 9835, "[unused240]": 245, "stores": 5324, "kyiv": 25669, "yawned": 27626, "chavez": 16860, "joanna": 15730, "[unused64]": 65, "wholly": 12590, "check": 4638, "originals": 23728, "##ification": 9031, "scar": 11228, "hannah": 8410, "silent": 4333, "cooler": 14976, "internally": 16058, "trademark": 11749, "reforms": 8818, "establishment": 5069, "homo": 24004, "eliza": 13234, "byte": 24880, "indonesian": 9003, "##uer": 13094, "##।": 29880, "##bet": 20915, "range": 2846, "repeat": 9377, "##lts": 21593, "sponsors": 13162, "verge": 16079, "acre": 7456, "floating": 8274, "montevideo": 22460, "correspond": 17254, "customers": 6304, "chieftain": 26625, "transformations": 21865, "rulers": 11117, "nice": 3835, "nesting": 21016, "benfica": 26542, "##་": 29960, "believed": 3373, "socialists": 21633, "105": 8746, "positioned": 10959, "concentrated": 8279, "dioxide": 14384, "##ntes": 17340, "scorpion": 22015, "ᆼ": 1489, "sweetheart": 12074, "ₖ": 1565, "rents": 28206, "diet": 8738, "心": 1849, "##−1": 27944, "newton": 8446, "florian": 29517, "thriving": 20319, "denmark": 5842, "tech": 6627, "halves": 23672, "conflicting": 19326, "quintet": 18109, "convenience": 15106, "##ike": 17339, "nine": 3157, "unsure": 12422, "##scoe": 28147, "clashes": 17783, "extant": 12905, "##osition": 19234, "fool": 7966, "idiots": 28781, "325": 19652, "admissions": 20247, "alexandre": 16971, "donnie": 28486, "constitute": 12346, "stryker": 25429, "parcel": 20463, "mediation": 26435, "##ete": 12870, "##hana": 15788, "[unused479]": 484, "difference": 4489, "osborn": 26999, "garry": 21507, "sabah": 22515, "1790": 13393, "anne": 4776, "babylonian": 26990, "ლ": 1447, "sewage": 19873, "plenty": 7564, "escape": 4019, "maria": 3814, "residual": 21961, "##^": 29637, "represents": 5836, "energetic": 18114, "##firm": 27972, "archer": 11024, "unlikely": 9832, "dangerously": 20754, "##11": 14526, "hidalgo": 24715, "zombies": 14106, "neighborhood": 5101, "zealand": 3414, "reassure": 24647, "##beam": 28302, "kingdom": 2983, "##dh": 16425, "persons": 5381, "##zine": 21254, "inverness": 22937, "tallest": 13747, "##aro": 10464, "eyes": 2159, "★": 1620, "asbestos": 29191, "bed": 2793, "additive": 29167, "dash": 11454, "₇": 1554, "rotor": 18929, "flour": 13724, "ʃ": 1130, "fleets": 25515, "dubbed": 9188, "antigua": 26023, "mention": 5254, "tracker": 27080, "bernard": 6795, "hydroelectric": 18541, "unesco": 12239, "gilded": 23880, "storage": 5527, "clip": 12528, "ই": 1349, "##usions": 22016, "plain": 5810, "rd": 16428, "specially": 11974, "some": 2070, "m²": 7030, "equipment": 3941, "hines": 25445, "bottles": 11015, "substituted": 17316, "[unused513]": 518, "courts": 5434, "euro": 9944, "ե": 1223, "saloon": 17078, "143": 16065, "##ually": 28488, "[unused452]": 457, "sucker": 26476, "grow": 4982, "trieste": 25199, "scoop": 23348, "seine": 16470, "231": 20304, "shelters": 17177, "alleging": 23294, "al": 2632, "manpower": 22039, "mbc": 27262, "consolidate": 24939, "[unused333]": 338, "holstein": 18864, "whipping": 23016, "friendly": 5379, "640": 19714, "ri": 15544, "transforming": 17903, "locking": 14889, "##roy": 13238, "townships": 13991, "slips": 17433, "[unused706]": 711, "bells": 10118, "dauphin": 29102, "გ": 1440, "georges": 10870, "persona": 16115, "trough": 23389, "commonplace": 27550, "##oning": 13369, "spotting": 27963, "relaxation": 23370, "##aux": 13754, "upstream": 13909, "[unused216]": 221, "saunders": 15247, "hermann": 12224, "maids": 29229, "drawing": 5059, "plausible": 24286, "reception": 7684, "mavericks": 28330, "destiny": 10461, "sly": 18230, "##hner": 28989, "graphic": 8425, "172": 18253, "classed": 27811, "ก": 1409, "pakistan": 4501, "whispered": 3990, "##oise": 23565, "##ে": 29917, "mouse": 8000, "advocates": 13010, "sean": 5977, "tibetan": 11953, "f1": 20069, "ʋ": 1133, "already": 2525, "comfortable": 6625, "##oco": 24163, "noticed": 4384, "sponsor": 10460, "combat": 4337, "##pas": 19707, "ɒ": 1111, "claims": 4447, "heavenly": 16581, "##etz": 26327, "sun": 3103, "vent": 18834, "⽥": 1634, "reissued": 14805, "monde": 23117, "seeming": 16064, "classes": 4280, "encoded": 12359, "marsh": 9409, "##£": 29646, "straightening": 27508, "documents": 5491, "##ddy": 14968, "##izations": 22318, "##hog": 25852, "taught": 4036, "[unused224]": 229, "sacred": 6730, "exclusive": 7262, "mechanical": 6228, "undertaking": 18457, "##olin": 18861, "##rma": 17830, "santos": 11053, "enterprise": 6960, "[unused853]": 858, "tatum": 25913, "paralympic": 17029, "ich": 22564, "##ssar": 25556, "##rea": 16416, "vocalists": 27478, "skirmish": 27264, "feature": 3444, "1b": 26314, "quilt": 27565, "##永": 30422, "##ncia": 22750, "354": 27878, "realises": 25924, "depict": 17120, "strangled": 21384, "topic": 8476, "##皇": 30443, "##চ": 29892, "lacks": 14087, "coffee": 4157, "##dly": 18718, "proctor": 28770, "convex": 18309, "slipping": 11426, "hand": 2192, "abandonment": 22290, "heck": 17752, "ᅩ": 1475, ":": 1024, "nbc": 6788, "footed": 28856, "synonym": 10675, "##brush": 18623, "##ask": 19895, "shrugs": 23822, "alessandro": 17956, "discarded": 15105, "##dos": 12269, "##य": 29868, "mixing": 6809, "utilization": 27891, "##ster": 6238, "##tling": 15073, "woolf": 29572, "##mur": 20136, "##sau": 23823, "vital": 8995, "film": 2143, "existence": 4598, "valleys": 12467, "frowns": 29303, "different": 2367, "##yna": 18279, "reading": 3752, "pod": 17491, "programmes": 8497, "soul": 3969, "requiring": 9034, "supremacy": 22006, "convention": 4680, "ahead": 3805, "pupils": 7391, "1652": 28853, "recipe": 17974, "maiden": 10494, "400": 4278, "catastrophe": 25539, "scratches": 25980, "[unused174]": 179, "##taro": 28160, "mentor": 10779, "entirety": 15700, "rigorous": 20001, "monarchy": 12078, "colombo": 16224, "sermon": 18408, "corridors": 17506, "248": 24568, "lauded": 26507, "sophie": 8234, "melbourne": 4940, "prizes": 11580, "cured": 21391, "nuns": 16752, "toronto": 4361, "[unused383]": 388, "again": 2153, "vincenzo": 24712, "##ded": 5732, "gan": 25957, "[unused512]": 517, "##hini": 20535, "##set": 13462, "fins": 18564, "estadio": 14143, "aimed": 6461, "influenced": 5105, "2019": 10476, "comparing": 13599, "behavior": 5248, "wylie": 29152, "making": 2437, "popped": 10538, "duo": 6829, "shave": 27545, "kg": 4705, "[unused217]": 222, "##shot": 19040, "very": 2200, "households": 3911, "do": 2079, "##thus": 19877, "ukraine": 5924, "clifton": 16271, "executions": 22679, "帝": 1838, "##eto": 18903, "monday": 6928, "##uaries": 22579, "##eti": 20624, "##侍": 30291, "belonged": 6272, "eligibility": 11395, "##c": 2278, "fuels": 20145, "##ث": 29818, "##sko": 21590, "ballet": 7250, "##t": 2102, "1683": 27414, "441": 28015, "able": 2583, "berth": 17064, "alumni": 9441, "##uo": 19098, "cayman": 26164, "contestant": 10832, "repaired": 13671, "duplicate": 24473, "tyrone": 18770, "225": 14993, "pursuits": 23719, "listening": 5962, "charleston": 10907, "behold": 27541, "hills": 4564, "slovenian": 16583, "checks": 14148, "acting": 3772, "wiring": 27930, "skinny": 15629, "##lton": 13947, "losing": 3974, "mussolini": 22554, "##ね": 30196, "jamestown": 27435, "truss": 24224, "correspondent": 11370, "##pres": 28994, "petitioned": 22527, "bathurst": 21897, "intervene": 18793, "loco": 28046, "locker": 12625, "##ume": 17897, "assisted": 7197, "lucy": 7004, "freedom": 4071, "##kota": 27380, "occurrence": 14404, "indigenous": 6284, "[unused154]": 159, "##scribe": 29234, "liaison": 14975, "guangzhou": 18693, "hodgson": 26107, "glow": 8652, "zeus": 15208, "##⁄₄": 27392, "neutral": 8699, "mannheim": 25116, "analogy": 23323, "ammonia": 25874, "[unused832]": 837, "##ed": 2098, "[unused871]": 876, "trance": 16588, "episode": 2792, "portions": 8810, "བ": 1431, "lakeside": 28701, "dragging": 11920, "し": 1657, "##bots": 27014, "gotten": 5407, "metropolitan": 4956, "brewery": 12161, "ranked": 4396, "spells": 11750, "una": 14477, "forensic": 15359, "[unused642]": 647, "detective": 6317, "ħ": 1103, "rites": 17105, "formed": 2719, "aurora": 13158, "essex": 8862, "amid": 13463, "appearance": 3311, "republican": 3951, "conviction": 10652, "herb": 12810, "[unused376]": 381, "boats": 6242, "malta": 9933, "knoxville": 20021, "europe": 2885, "[unused591]": 596, "elisa": 29490, "ives": 23945, "##ulated": 8898, "hatfield": 26853, "strap": 16195, "##sch": 11624, "##bin": 8428, "remedy": 19519, "rashid": 22080, "##lee": 10559, "##mage": 26860, "stockings": 26412, "deadline": 15117, "manufacture": 9922, "##rization": 26910, "counties": 5721, "remarks": 12629, "##gy": 6292, "roy": 6060, "mb": 16914, "algorithm": 9896, "discretion": 19258, "chew": 21271, "##loh": 24729, "##do": 3527, "galilee": 28928, "cds": 14340, "apostolic": 11815, "rooftop": 23308, "communities": 4279, "poses": 22382, "madame": 10602, "homeland": 10759, "##dson": 25112, "[unused337]": 342, "janet": 9965, "pleasant": 8242, "jarrett": 24503, "##广": 30368, "essay": 9491, "reminding": 15906, "##≥": 30136, "##ז": 29793, "inspiration": 7780, "resentment": 20234, "teams": 2780, "##¶": 29660, "honesty": 16718, "##ball": 7384, "sunshine": 9609, "liquor": 13207, "lone": 10459, "recognise": 17614, "##zee": 23940, "##folding": 21508, "expulsion": 18272, "negotiating": 18875, "sales": 4341, "draft": 4433, "outnumbered": 21943, "ours": 14635, "reintroduced": 28263, "alma": 11346, "reagan": 11531, "tent": 9311, "[unused749]": 754, "palmer": 8809, "rocking": 14934, "surfing": 19967, "ambassador": 6059, "alloys": 28655, "laptop": 12191, "establish": 5323, "fossil": 10725, "joined": 2587, "fishery": 22880, "decisive": 13079, "images": 4871, "pediatric": 23614, "stove": 16247, "##mie": 9856, "questioning": 11242, "##osis": 12650, "olds": 19457, "inhibit": 26402, "catering": 18640, "outlaw": 19104, "friendships": 28956, "[unused397]": 402, "analogous": 19639, "manly": 19385, "messaging": 24732, "judiciary": 14814, "overture": 25052, "waterway": 23668, "nordic": 13649, "##iform": 22631, "##ml": 19968, "commenting": 15591, "church": 2277, "plunging": 29059, "naive": 15743, "maud": 21696, "reporter": 6398, "compliant": 24577, "valet": 27238, "zachary": 19474, "cute": 10140, "##jee": 16963, "[unused773]": 778, "##dio": 20617, "granny": 19794, "articulated": 20742, "ritual": 8887, "bites": 15424, "overseeing": 19642, "1661": 24046, "wilde": 18575, "##ı": 11722, "compassionate": 29353, "dubious": 22917, "comedian": 9971, "provides": 3640, "yusuf": 23495, "storms": 12642, "intersections": 26540, "##wave": 16535, "tendency": 11765, "weaponry": 22711, "hm": 20287, "wakefield": 16045, "proud": 7098, "electors": 19165, "assessed": 14155, "harmon": 25546, "farms": 8623, "mammals": 11993, "laugh": 4756, "airways": 13095, "pumps": 15856, "341": 28358, "salt": 5474, "arya": 26140, "rolf": 23381, "padua": 24941, "calculating": 20177, "representations": 15066, "unusual": 5866, "document": 6254, "tip": 5955, "needy": 23927, "transition": 6653, "gives": 3957, "##》": 30166, "indigo": 22472, "domed": 29208, "awkwardly": 18822, "domes": 26193, "specialised": 17009, "[unused819]": 824, "[unused189]": 194, "##tical": 14656, "##escu": 19434, "405": 23988, "policing": 21107, "hydro": 18479, "dismounted": 29580, "easy": 3733, "131": 14677, "##bia": 11607, "##u": 2226, "irs": 25760, "vertebrae": 25517, "##dner": 28001, "religion": 4676, "##66": 28756, "clit": 17962, "wei": 11417, "infiltrate": 29543, "sand": 5472, "1847": 9176, "informing": 21672, "clears": 28837, "糹": 1934, "##kson": 26579, "mitsubishi": 19695, "jobs": 5841, "scattered": 7932, "chip": 9090, "##cuit": 28168, "870": 28864, "orbits": 20347, "girlfriend": 6513, "decision": 3247, "##nted": 14706, "early": 2220, "unmarried": 17204, "courtroom": 20747, "glen": 8904, "curving": 21439, "marijuana": 16204, "pp": 4903, "examines": 20798, "sleepy": 17056, "kabul": 21073, "cassidy": 13737, "rector": 10935, "heraldic": 28867, "britney": 29168, "227": 21489, "queer": 19483, "distinguishes": 27343, "##fer": 7512, "preceded": 11677, "marriages": 12743, "drying": 17462, "№": 1578, "34th": 20460, "projection": 13996, "improvisation": 24584, "viet": 19710, "hopper": 20517, "if": 2065, "hell": 3109, "worrying": 15366, "select": 7276, "saturn": 14784, "##ʀ": 29693, "blindly": 25734, "ritter": 23168, "prevents": 16263, "hopeful": 17772, "embryo": 28086, "administration": 3447, "objectives": 11100, "verdict": 14392, "fargo": 23054, "treatments": 13441, "outlets": 11730, "jar": 15723, "##め": 30206, "monarchs": 19799, "derby": 7350, "##ttering": 19567, "ה": 1245, "##dham": 17661, "outright": 13848, "[unused778]": 783, "stepped": 3706, "forget": 5293, "##shan": 9688, "artist": 3063, "145": 13741, "acceptance": 9920, "xvi": 16855, "mat": 13523, "奈": 1814, "rabbits": 20403, "##vana": 27313, "philanthropy": 29291, "cliffs": 13333, "android": 11924, "cans": 18484, "marc": 7871, "##its": 12762, "throwing": 6886, "cocaine": 16034, "##ism": 2964, "0": 1014, "communes": 16569, "mortgage": 14344, "##bell": 17327, "shelf": 11142, "recognize": 6807, "tending": 25069, "relying": 18345, "stockport": 26284, "jaya": 24120, "ironic": 19313, "##da": 2850, "fright": 25966, "##च": 29854, "nods": 11232, "caspian": 25893, "static": 10763, "coughing": 21454, "extremes": 28800, "reciprocal": 28309, "injection": 13341, "vascular": 21449, "act": 2552, "##eda": 11960, "[unused888]": 893, "recruit": 13024, "wears": 11651, "pi": 14255, "##cating": 18252, "recommended": 6749, "proceedings": 8931, "spontaneously": 27491, "hill": 2940, "interceptor": 24727, "claw": 15020, "insistent": 29204, "tired": 5458, "##shed": 14740, "##vos": 19862, "##ル": 30259, "morrison": 9959, "gina": 17508, "infrared": 14611, "ⁱ": 1537, "magma": 28933, "fitzpatrick": 26249, "infringement": 20701, "ᵒ": 1503, "tango": 17609, "greenfield": 26713, "melt": 14899, "moment": 2617, "padma": 23731, "boston": 3731, "##क": 29851, "onwards": 9921, "platoon": 13799, "brussels": 9371, "sticks": 12668, "fleetwood": 23866, "tunnel": 5234, "provisional": 10864, "dwelling": 13160, "kite": 20497, "##om": 5358, "mcpherson": 24332, "promoters": 26512, "##ᆸ": 30024, "clouded": 26761, "locating": 26339, "##real": 22852, "chaplin": 23331, "debate": 5981, "##iko": 12676, "380": 17014, "coarse": 20392, "george": 2577, "##cey": 25810, "2015": 2325, "combining": 11566, "##orio": 27416, "improvised": 19641, "glands": 23340, "victor": 5125, "dickson": 22076, "hive": 26736, "automatically": 8073, "wolfe": 14212, "cunningham": 13652, "matrix": 8185, "##bt": 19279, "##rily": 11272, "##ワ": 30262, "lopez": 8685, "mike": 3505, "beside": 3875, "spiritual": 6259, "lambda": 23375, "capital": 3007, "os": 9808, "demonstrates": 16691, "close": 2485, "##pt": 13876, "ecuador": 10378, "aka": 9875, "vedic": 25824, "##lington": 18722, "him": 2032, "declare": 13520, "automobiles": 19207, "harald": 20966, "preview": 19236, "baroque": 10456, "thermal": 9829, "cereal": 20943, "unbearable": 24257, "perimeter": 13443, "tour": 2778, "yukon": 19898, "[unused751]": 756, "nerve": 9113, "domenico": 18638, "motor": 5013, "fries": 22201, "thinks": 6732, "##tort": 25485, "runway": 9271, "wholesale": 17264, "159": 18914, "##amps": 25167, "ₗ": 1566, "saxe": 24937, "millie": 19561, "go": 2175, "cortex": 17132, "works": 2573, "tasmanian": 21394, "age": 2287, "##ori": 10050, "amy": 6864, "¿": 1094, "sexual": 4424, "##physical": 23302, "⊕": 1612, "dorm": 19568, "illustrated": 7203, "10th": 6049, "baxter": 14664, "willingly": 18110, "##oun": 23709, "occupying": 13992, "outstretched": 21059, "extensions": 14305, "hound": 19598, "davenport": 16273, "tenor": 9534, "murphy": 7104, "angie": 14835, "##typic": 23186, "highness": 17114, "##azi": 16103, "chili": 20238, "collaborator": 18843, "climates": 24734, "cocky": 24995, "[unused270]": 275, "力": 1778, "programs": 3454, "node": 13045, "cavaliers": 25096, "eagles": 8125, "specific": 3563, "derives": 12153, "lung": 11192, "engulfed": 24692, "federation": 4657, "##iss": 14643, "frustration": 9135, "monster": 6071, "##esthesia": 25344, "treatise": 15326, "steps": 4084, "mountain": 3137, "perfectly": 6669, "##kyu": 23076, "slate": 12796, "consolidated": 10495, "nicholson": 16955, "coated": 15026, "company": 2194, "not": 2025, "muttering": 22581, "decommissioned": 14394, "thomson": 11161, "1836": 10081, "fracture": 19583, "bribe": 26470, "##cana": 28621, "840": 28122, "mantle": 16019, "delivers": 18058, "teammates": 13220, "confesses": 22826, "dc": 5887, "1809": 12861, "lorenzo": 12484, "relief": 4335, "prospect": 9824, "nightmares": 15446, "pawn": 19175, "informal": 11900, "54": 5139, "downing": 22501, "##tters": 24168, "##bered": 22408, "ח": 1248, "##lova": 24221, "gaga": 23332, "1779": 17616, "seventeen": 9171, "##←": 30111, "##ttle": 26328, "referring": 7727, "afterward": 9707, "territories": 6500, "amassed": 22151, "[unused179]": 184, "subjective": 20714, "television": 2547, "ivanov": 26333, "bothered": 11250, "sued": 12923, "##nts": 7666, "56": 5179, "stimulate": 23216, "professionals": 8390, "embarrassment": 14325, "epsilon": 28038, "solid": 5024, "aarhus": 29173, "meg": 12669, "cher": 24188, "textbook": 16432, "##ɕ": 29680, "ancient": 3418, "baylor": 23950, "rowland": 20539, "##sor": 21748, "outstanding": 5151, "airbus": 20901, "ष": 1337, "chapters": 9159, "possess": 10295, "##ev": 6777, "muslims": 7486, "lost": 2439, "##edance": 29605, "favourite": 8837, "smarter": 25670, "screenings": 25437, "mrna": 28848, "##oom": 17650, "iata": 9833, "washington": 2899, "gr": 24665, "astoria": 29285, "jerking": 22387, "##est": 4355, "tricky": 24026, "indication": 12407, "pt": 13866, "##ड": 29857, "[unused25]": 26, "carr": 12385, "sagged": 26719, "##fall": 13976, "athletes": 7576, "##elo": 18349, "##rized": 18425, "significance": 7784, "tentacles": 24719, "potent": 16834, "buy": 4965, "##dden": 17101, "##kney": 26993, "warren": 6031, "leaflets": 27306, "memorable": 13432, "facilitated": 19601, "pistons": 24399, "ely": 20779, "haitian": 21404, "##vor": 14550, "fabulous": 18783, "##coat": 16531, "##pta": 22799, "1817": 12529, "captives": 21496, "burt": 18611, "1717": 27525, "harpsichord": 26504, "tensions": 13136, "exclude": 23329, "dictator": 21237, "runner": 5479, "exceeds": 23651, "##ting": 3436, "barking": 19372, "##rus": 7946, "##cino": 21081, "refrigerator": 18097, "##eras": 24140, "investigated": 10847, "##rium": 18802, "southernmost": 21787, "rest": 2717, "[unused656]": 661, "stuck": 5881, "106": 10114, "म": 1331, "##ples": 21112, "dwight": 14304, "armstrong": 9143, "picasso": 22457, "##cho": 9905, "nhs": 17237, "##ayo": 28852, "##resh": 21898, "1726": 28342, "910": 27743, "coming": 2746, "辶": 1956, "##inkles": 28562, "lo": 8840, "lund": 21860, "cheltenham": 18763, "disneyland": 25104, "flees": 24776, "cherry": 9115, "ʌ": 1134, "##was": 17311, "bern": 16595, "mona": 13813, "contiguous": 25177, "riverside": 12497, "garth": 21523, "interest": 3037, ".": 1012, "344": 29386, "[unused411]": 416, "satisfaction": 9967, "[unused100]": 105, "croats": 26222, "promote": 5326, "appreciation": 12284, "ghanaian": 27202, "mingled": 25959, "native": 3128, "walked": 2939, "2000s": 8876, "digital": 3617, "##tc": 13535, "bonaparte": 20830, "2012": 2262, "##sd": 16150, "dried": 9550, "¦": 1072, "cleanup": 27686, "[unused738]": 743, "acquainted": 19056, "radiation": 8249, "georg": 12062, "abused": 16999, "heritage": 4348, "segunda": 19071, "cleansing": 26799, "caste": 14542, "[unused188]": 193, "174": 19492, "##bei": 19205, "##ย": 29952, "plastered": 21832, "presumably": 10712, "wavelengths": 29263, "empire": 3400, "mcleod": 25363, "destroyed": 3908, "lyle": 21971, "measuring": 9854, "drivers": 6853, "##dice": 24598, "hilda": 21589, "school": 2082, "gazing": 16448, "##《": 30165, "buenos": 9204, "copeland": 27303, "debated": 15268, "hospitality": 15961, "##west": 19650, "rahman": 14364, "ke": 17710, "awake": 8300, "labels": 10873, "unseen": 16100, "intersects": 17349, "themselves": 3209, "[unused571]": 576, "alsace": 24922, "sprawled": 21212, "biodiversity": 17194, "drugs": 5850, "saddam": 24111, "archaeologists": 19254, "##izan": 27334, "joining": 5241, "newport": 9464, "inscription": 9315, "parallels": 18588, "otherwise": 4728, "prick": 24858, "buddy": 8937, "announcements": 25674, "hewitt": 19482, "homme": 26574, "hemisphere": 14130, "sensory": 16792, "##zd": 26494, "stalin": 13125, "paperback": 13611, "tortured": 12364, "operates": 5748, "paces": 24785, "elves": 16980, "qui": 21864, "libraries": 8860, "ap": 9706, "succession": 8338, "twisting": 12814, "bridges": 7346, "endless": 10866, "hertfordshire": 18889, "nur": 27617, "galileo": 21514, "[unused95]": 96, "[unused884]": 889, "##uche": 19140, "cup": 2452, "flushing": 23519, "entertaining": 14036, "##dial": 27184, "cheerful": 18350, "gulped": 25411, "##za": 4143, "immune": 11311, "ᅦ": 1473, "decay": 13121, "##fest": 14081, "strasbourg": 18104, "appeared": 2596, "archaeology": 12009, "shirt": 3797, "tender": 8616, "helena": 10269, "treaty": 5036, "effective": 4621, "katherine": 9477, "tasmania": 12343, "550": 13274, "##ela": 10581, "##men": 3549, "guerrero": 16938, "airports": 13586, "crimea": 21516, "##chua": 26200, "yard": 4220, "huang": 15469, "vu": 24728, "paying": 7079, "¢": 1068, "##lers": 12910, "unionist": 17104, "goo": 27571, "temperance": 23372, "##buck": 24204, "slit": 18036, "brewers": 20007, "rained": 28270, "report": 3189, "well": 2092, "excess": 9987, "internacional": 27607, "croix": 18733, "nepali": 23418, "skulls": 21542, "##·": 29661, "assyrian": 19950, "concerts": 6759, "##ility": 15148, "##rries": 26801, "firm": 3813, "continues": 4247, "##num": 19172, "fiba": 13651, "nun": 16634, "israeli": 5611, "sponsorship": 12026, "pending": 14223, "##на": 19865, "morale": 19292, "eleanor": 10508, "flinders": 29120, "newest": 14751, "election": 2602, "angela": 10413, "nope": 16780, "volatile": 20606, "##nik": 8238, "drive": 3298, "comprehension": 26683, "##elling": 23918, "sockets": 27540, "haunt": 24542, "##itic": 18291, "systemic": 22575, "##ogan": 21131, "志": 1851, "inca": 27523, "unreliable": 23579, "wondering": 6603, "belgrade": 10291, "25th": 10965, "equipped": 6055, "stunt": 15412, "category": 4696, "tully": 25724, "1776": 13963, "couple": 3232, "male": 3287, "m1": 23290, "infirmary": 23453, "ivory": 11554, "lark": 23404, "goods": 5350, "greece": 5483, "ignited": 22395, "##ook": 14659, "anchorage": 21086, "enhanced": 9412, "farrell": 16248, "##aceae": 18339, "christians": 8135, "unfamiliar": 16261, "holloway": 20977, "minnesota": 5135, "taluk": 23140, "lang": 11374, "##ologist": 8662, "##ein": 12377, "##all": 8095, "##free": 23301, "##tch": 10649, "axe": 12946, "[unused243]": 248, "appearances": 3922, "bey": 20289, "lot": 2843, "spencer": 7084, "1660": 17954, "swung": 7671, "##apa": 22068, "whereas": 6168, "croatia": 8097, "hamburg": 8719, "dying": 5996, "acted": 6051, "funny": 6057, "name": 2171, "bush": 5747, "pow": 23776, "suffrage": 15178, "stretched": 7121, "pascal": 17878, "##lz": 23858, "rhode": 9763, "hint": 9374, "accusing": 16723, "projections": 21796, "##ncy": 9407, "curate": 27530, "wave": 4400, "broadband": 19595, "##gia": 10440, "skills": 4813, "disturbing": 14888, "erin": 11781, "##rcus": 29006, "backstage": 20212, "2007": 2289, "seriously": 5667, "brentford": 26550, "sesame": 23605, "afterwards": 5728, "murderous": 25303, "[unused222]": 227, "escort": 8620, "cypriot": 18543, "werner": 14121, "descended": 9287, "bees": 13734, "1907": 5528, "cases": 3572, "[unused5]": 6, "inappropriate": 15884, "##cy": 5666, "guarantee": 11302, "sparsely": 24961, "demolition": 12451, "##oki": 23212, "##mia": 10092, "turkish": 5037, "##wn": 7962, "talked": 5720, "firmly": 7933, "partnering": 27001, "isolate": 27152, "##grove": 21525, "downloadable": 26720, "##uto": 16161, "cpi": 28780, "##lidae": 21595, "concord": 16557, "damaging": 15011, "[unused702]": 707, "hindu": 7560, "converted": 4991, "transcription": 14193, "hugged": 10308, "interpretations": 15931, "1928": 4662, "ล": 1418, "when": 2043, "##encies": 15266, "rainbow": 10098, "##eses": 23072, "##duction": 16256, "##baum": 14898, "leader": 3003, "excavation": 16456, "filters": 17736, "##werk": 29548, "gerry": 14926, "1875": 7466, "fossils": 11954, "conscription": 26329, "law": 2375, "cable": 5830, "nosed": 29338, "lashed": 25694, "poly": 26572, "##kot": 23342, "dina": 26146, "##oint": 25785, "relay": 8846, "scene": 3496, "quan": 24110, "languages": 4155, "leiden": 20329, "cough": 19340, "teen": 9458, "grateful": 8794, "included": 2443, "stan": 9761, "##avia": 15164, "vuelta": 21441, "rag": 17768, "##lou": 23743, "medicines": 20233, "gambia": 26728, "houston": 5395, "რ": 1451, "城": 1804, "##朝": 30400, "continuum": 22961, "manifold": 19726, "molina": 25601, "newfound": 27608, "lowlands": 26411, "mgm": 15418, "uber": 19169, "recounts": 23412, "cornerstone": 23354, "##ot": 4140, "##⁵": 30074, "##llar": 17305, "burgundy": 18383, "pat": 6986, "oldham": 18285, "stranded": 15577, "##jic": 25008, "lausanne": 22256, "##ose": 9232, "##oted": 27428, "##bant": 29604, "upgrades": 18739, "sh": 14021, "andhra": 14065, "glanced": 3887, "sellers": 19041, "blame": 7499, "ivan": 7332, "hardware": 8051, "grading": 26886, "##otic": 20214, "scouting": 14299, "twist": 9792, "[unused616]": 621, "##ntly": 20630, "sling": 27076, "nude": 15287, "sailors": 11279, "gibson": 9406, "sim": 21934, "islam": 7025, "puck": 22900, "stained": 9702, "humboldt": 19249, "spruce": 19893, "exaggerated": 16903, "##sus": 13203, "niccolo": 27033, "##国": 30325, "oblique": 20658, "enjoyed": 5632, "adulthood": 20480, "ந": 1386, "remind": 10825, "##ے": 29846, "painful": 9145, "ideally": 28946, "##ᴺ": 30030, "560": 21267, "ghost": 5745, "doc": 9986, "##air": 11215, "peninsula": 6000, "##iting": 15402, "##von": 17789, "libretto": 17621, "##is": 2483, "[unused298]": 303, "doris": 15467, "1820s": 28504, "laurent": 14718, "##oue": 27872, "lynch": 11404, "satan": 16795, "dimension": 9812, "##mah": 25687, "groom": 18087, "χ": 1177, "help": 2393, "strikeouts": 20813, "assaulted": 17536, "##hya": 17915, "editor": 3559, "colleges": 6667, "miles": 2661, "diplomat": 11125, "shards": 23327, "pga": 14198, "appointed": 2805, "synthetic": 12553, "[unused991]": 996, "vidhan": 28590, "mckay": 16225, "ו": 1246, "nasa": 9274, "introducing": 10449, "mechanically": 27846, "##tos": 13122, "43": 4724, "##ake": 13808, "##col": 25778, "oliver": 6291, "railways": 7111, "turnpike": 17116, "##ler": 3917, "twelfth": 11313, "elliptic": 29413, "kane": 8472, "large": 2312, "battleship": 17224, "##ush": 20668, "locals": 10575, "woody": 13703, "1829": 11523, "seduction": 26962, "##minate": 19269, "elliott": 9899, "consequence": 9509, "##laze": 24472, "##dermott": 29370, "temperature": 4860, "erich": 17513, "nana": 17810, "##ifer": 23780, "swimmer": 13361, "temperament": 26270, "justification": 19777, "sharpe": 22147, "##jured": 26949, "choreography": 16967, "##rsa": 22381, "asahi": 29465, "genetically": 19345, "pigment": 28815, "instruments": 5693, "##pressing": 24128, "enthusiasts": 20305, "stadion": 20756, "conditions": 3785, "##6th": 25994, "[unused382]": 387, "##cts": 16649, "heights": 7535, "suburb": 7575, "distinct": 5664, "mouthful": 28462, "countless": 14518, "pale": 5122, "occupies": 14133, "[unused393]": 398, "[unused735]": 740, "[unused593]": 598, "mutants": 23892, "qualifier": 10981, "forcefully": 23097, "宿": 1826, "jessica": 8201, "alphabet": 12440, "flea": 26735, "■": 1617, "ticked": 26019, "narrated": 17356, "ʳ": 1142, "civilians": 9272, "chairman": 3472, "bucharest": 14261, "konrad": 22958, "dose": 13004, "1906": 5518, "patient": 5776, "##holders": 17794, "##里": 30488, "wishes": 8996, "undoubtedly": 17319, "genie": 22519, "1926": 4881, "##sche": 22842, "frown": 11330, "welded": 29014, "marketing": 5821, "##uc": 14194, "თ": 1444, "lifting": 8783, "rave": 23289, "concert": 4164, "immunity": 15403, "exhibition": 4538, "amend": 27950, "rocker": 24779, "madras": 12993, "##º": 29662, "irregularities": 28868, "##tidae": 21861, "conjunction": 9595, "prominently": 14500, "plight": 24525, "∧": 1602, "##ogy": 15707, "##方": 30389, "benji": 27231, "quick": 4248, "##rose": 13278, "rigged": 25216, "suicidal": 26094, "sloan": 19024, "against": 2114, "valid": 9398, "treating": 12318, "publishes": 12466, "##planes": 26634, "quo": 22035, "##cation": 10719, "buzzing": 20386, "tribal": 8807, "lodging": 26859, "flowers": 4870, "vs": 5443, "maker": 9338, "logging": 15899, "breaths": 12938, "gutierrez": 20836, "##enburg": 12059, "ministries": 16410, "hacking": 23707, "poke": 26202, "shed": 8328, "worship": 7425, "improves": 24840, "electrically": 29103, "swell": 18370, "plates": 7766, "sarcastically": 23800, "tianjin": 26216, "28": 2654, "1969": 3440, "stool": 14708, "receiver": 8393, "cornish": 17797, "slovenia": 10307, "upright": 10051, "##os": 2891, "pip": 28315, "hometown": 9627, "neighbor": 11429, "puddle": 25081, "sciences": 4163, "stallion": 19122, "museo": 19713, "##odies": 27391, "##宮": 30350, "happily": 11361, "fleet": 4170, "exquisite": 19401, "##，": 30515, "quantities": 12450, "[unused590]": 595, "##cin": 15459, "1735": 26063, "fact": 2755, "beetle": 7813, "1701": 26059, "masovian": 23703, "damascus": 16094, "##arus": 29133, "coined": 13279, "com": 4012, "preached": 21491, "employee": 7904, "strikers": 26049, "##elled": 21148, "experiment": 7551, "christophe": 23978, "declining": 13993, "reddy": 18998, "lifetime": 6480, "[unused290]": 295, "gestapo": 26446, "clara": 10254, "##ica": 5555, "conqueror": 25466, "##vington": 21827, "tough": 7823, "##uso": 26658, "##lto": 23223, "partisans": 20762, "exploded": 9913, "##rage": 24449, "intensely": 20531, "##athlon": 17563, "##ducted": 29510, "torpedoes": 18544, "challenge": 4119, "isabel": 11648, "migration": 9230, "marseille": 16766, "ch": 10381, "1733": 27230, "[unused446]": 451, "munchen": 25802, "blackmail": 25044, "##wal": 13476, "##є": 29759, "housing": 3847, "wheels": 7787, "automotive": 12945, "releasing": 8287, "thugs": 24106, "404": 24837, "tian": 23401, "scary": 12459, "##uda": 14066, "##0": 2692, "##ony": 16585, "tatiana": 22725, "##urse": 28393, "championship": 2528, "syndicated": 13889, "##kic": 29493, "kant": 26044, "fever": 9016, "allie": 16944, "##÷": 29669, "pins": 16300, "partnership": 5386, "hospitals": 8323, "circulated": 17640, "##dion": 29573, "topping": 22286, "ridges": 16386, "[unused743]": 748, "spartak": 28560, "threatened": 5561, "dominant": 7444, "heads": 4641, "##cal": 9289, "##yu": 10513, "greenhouse": 16635, "del": 3972, "were": 2020, "cerebral": 18439, "avenue": 3927, "aggression": 14974, "deaths": 6677, "##breakers": 27623, "yugoslav": 12292, "bertie": 20743, "mustang": 18851, "anybody": 10334, "##igen": 29206, "baptist": 7550, "emory": 25853, "##dine": 10672, "##broken": 29162, "bass": 3321, "##tica": 22723, "##口": 30314, "mysore": 20761, "totals": 21948, "[unused761]": 766, "clasp": 23465, "funnel": 25102, "tailored": 21727, "balloon": 13212, "pointe": 26119, "diary": 9708, "[unused6]": 7, "[unused87]": 88, "[unused46]": 47, "unfit": 29439, "##evic": 17726, "hung": 5112, "fleeting": 25085, "airplane": 13297, "chet": 25157, "mischief": 25166, "##piration": 16781, "handicapped": 26920, "afi": 28697, "artifacts": 10471, "independent": 2981, "slovak": 12747, "rent": 9278, "francaise": 18427, "intimate": 10305, "plaid": 26488, "##oll": 14511, "semester": 13609, "##genic": 16505, "norte": 19931, "ministry": 3757, "danielle": 18490, "alias": 14593, "article": 3720, "governed": 9950, "larson": 21213, "pour": 10364, "wnba": 25554, "##plex": 19386, "##rran": 28327, "nearby": 3518, "##odon": 28716, "centimetres": 13935, "##ivo": 20984, "empirical": 17537, "236": 23593, "whisky": 21265, "clergy": 11646, "baptiste": 17329, "tempo": 13657, "chancellor": 7306, "diaries": 18707, "utrecht": 18361, "greater": 3618, "brisbane": 7717, "1560": 29185, "parisian": 24262, "chiang": 17684, "huey": 29503, "onward": 15834, "##rs": 2869, "##agger": 27609, "##moto": 15319, "boat": 4049, "##urgent": 27176, "##ann": 11639, "[unused328]": 333, "390": 20024, "[unused205]": 210, "latino": 7402, "curve": 7774, "tx": 19067, "##gara": 24864, "supermarkets": 26676, "bavaria": 11606, "barlow": 17803, "administrative": 3831, "horst": 28565, "donna": 10972, "##pit": 23270, "angular": 16108, "smallpox": 25765, "defeats": 14222, "revision": 13921, "∘": 1599, "overheard": 20443, "##南": 30311, "##cor": 27108, "activities": 3450, "como": 18609, "retaining": 12823, "[unused317]": 322, "bob": 3960, "peyton": 17931, "itunes": 11943, "##家": 30351, "##vsky": 15904, "neurons": 15698, "##arian": 12199, "censorship": 15657, "accused": 5496, "ribs": 10335, "joshua": 9122, "startling": 19828, "stranger": 7985, "compassion": 15398, "strangers": 12358, "wards": 11682, "[unused209]": 214, "luminous": 25567, "maitland": 25511, "##hala": 19531, "yvonne": 21684, "[unused663]": 668, "##lier": 14355, "manipulated": 20063, "coco": 25033, "spotted": 7282, "morality": 16561, "luzon": 21622, "##erton": 20995, "resting": 8345, "gale": 14554, "bancroft": 29351, "##rt": 5339, "lal": 21348, "invasions": 23536, "##croft": 14716, "troops": 3629, "[unused430]": 435, "newsletter": 17178, "##hood": 9021, "freiburg": 22871, "society": 2554, "initiated": 7531, "##oa": 10441, "mccarthy": 12584, "fled": 6783, "##form": 14192, "complain": 17612, "globally": 16452, "harvesting": 21534, "accordingly": 11914, "բ": 1220, "[unused496]": 501, "##feit": 21156, "scriptures": 22481, "##bula": 28507, "ɐ": 1109, "relevant": 7882, "##པ": 29966, "[unused254]": 259, "hilltop": 25566, "##zel": 12638, "touring": 6828, "hitch": 27738, "shaky": 15311, "##σ": 29733, "amazed": 15261, "terri": 26568, "upstate": 29530, "repository": 22409, "##iciencies": 28227, "##ti": 3775, "labourers": 24043, "denise": 15339, "nestled": 22704, "##py": 7685, "heel": 12073, "weston": 12755, "##life": 15509, "dudley": 12648, "amore": 26297, "##chman": 19944, "raiding": 23530, "dispatch": 18365, "powerless": 25192, "arousal": 18905, "寺": 1827, "##ingly": 15787, "streaming": 11058, "1910": 4976, "1978": 3301, "olga": 15585, "jacobs": 12988, "219": 20636, "yemen": 13968, "flaw": 28450, "departure": 6712, "bury": 11010, "terrain": 9291, "tense": 9049, "supplying": 17731, "¬": 1078, "fences": 21549, "##rosis": 29166, "treaties": 16013, "nutritional": 28268, "antarctica": 12615, "flickered": 15999, "maya": 9815, "surveillance": 9867, "hooves": 28399, "wasp": 19411, "##ry": 2854, "193": 19984, "hates": 16424, "##erson": 18617, "44th": 26409, "dresses": 14464, "rosie": 15820, "##uen": 24997, "brilliance": 28850, "elliot": 11759, "burlington": 15552, "merchant": 6432, "737": 22061, "elevators": 19406, "ferrari": 13632, "maverick": 27187, "##nat": 19833, "extras": 26279, "bytes": 27507, "prisoners": 5895, "contaminated": 19450, "resurrection": 15218, "honestly": 9826, "darkest": 23036, "initially": 3322, "smart": 6047, "custom": 7661, "[unused620]": 625, "tying": 15233, "mars": 7733, "crashed": 8007, "sweetness": 23210, "debut": 2834, "arrows": 12563, "caressed": 21473, "hackney": 28425, "biological": 6897, "[unused454]": 459, "respective": 7972, "ltd": 5183, "worlds": 8484, "rte": 20375, "##nally": 26827, "dissatisfied": 25956, "##gc": 18195, "##rden": 18246, "gifford": 29360, "texture": 14902, "regiment": 3483, "chances": 9592, "traumatic": 19686, "brawl": 23244, "posted": 6866, "meditation": 13804, "resolve": 10663, "##國": 30326, "facing": 5307, "selangor": 28904, "distinctly": 19517, "carlos": 5828, "wien": 22782, "pause": 8724, "j": 1046, "software": 4007, "shocking": 16880, "bound": 5391, "disastrous": 16775, "##rro": 18933, "alain": 15654, "buck": 10131, "kan": 22827, "world": 2088, "fcc": 14420, "sizable": 25908, "cooling": 11520, "史": 1790, "pumped": 16486, "##ceptive": 28687, "kannada": 13873, "realized": 3651, "##zzling": 20838, "roberta": 23455, "[unused650]": 655, "thereof": 21739, "slowed": 9784, "##ァ": 30218, "superliga": 25922, "routine": 9410, "amalgamation": 21968, "playground": 14705, "verandah": 26153, "antilles": 27695, "kira": 15163, "##kshi": 27488, "diaz": 12526, "##au": 4887, "operators": 9224, "instituted": 14948, "ᅧ": 1474, "cream": 6949, "municipalities": 7602, "yorker": 19095, "aerospace": 13395, "1734": 27367, "welterweight": 20882, "bisexual": 22437, "rapidly": 5901, "forged": 16158, "conferred": 15186, "gene": 4962, "##ular": 7934, "camden": 13267, "tt": 23746, "und": 6151, "dubai": 11558, "migratory": 22262, "implications": 13494, "billions": 25501, "shack": 22200, "prep": 17463, "zeke": 18270, "chain": 4677, "texts": 6981, "crews": 10604, "tentative": 19943, "[unused450]": 455, "maurice": 7994, "police": 2610, "theme": 4323, "identities": 15702, "haunted": 11171, "uae": 17641, "thigh": 10120, "hands": 2398, "##rak": 16555, "##ometric": 28993, "northamptonshire": 21367, "dunes": 17746, "memorial": 3986, "##cko": 19665, "ー": 1739, "1659": 28288, "##oris": 21239, "academia": 16926, "merged": 5314, "##urne": 21737, "2a": 23409, "posts": 8466, "##ados": 28118, "spilling": 18054, "##y": 2100, "admit": 6449, "swallowing": 18468, "sessions": 6521, "carlson": 22226, "patiently": 19080, "laurel": 11893, "mayhem": 26865, "uhf": 20131, "persistence": 28297, "##ood": 17139, "unveiled": 11521, "rosenberg": 21069, "doha": 26528, "750": 9683, "light": 2422, "##tituted": 29139, "sindh": 20284, "##uously": 28078, "2d": 14134, "[unused609]": 614, "manchester": 5087, "jerome": 11120, "##liche": 27412, "##ne": 2638, "masonry": 18103, "[unused542]": 547, "##ace": 10732, "##hae": 25293, "johor": 25268, "##mind": 23356, "kenya": 7938, "indies": 9429, "##nay": 16741, "##kt": 25509, "##uded": 13936, "vantage": 27274, "cursed": 10678, "տ": 1236, "##nberg": 11144, "tipping": 25486, "[unused793]": 798, "extraordinary": 9313, "##link": 13767, "thumping": 25996, "[unused911]": 916, "quartz": 20971, "##castle": 23662, "ruth": 7920, "excessive": 11664, "sandals": 24617, "gown": 11739, "boredom": 29556, "18th": 4985, "retreated": 11672, "##eche": 27635, "attaining": 26615, "warsaw": 8199, "istanbul": 9960, "renaming": 24944, "descendants": 8481, "liturgical": 19246, "describes": 5577, "designated": 4351, "tremor": 27734, "isaac": 7527, "381": 29335, "usb": 18833, "retribution": 25928, "albany": 10283, "##থ": 29899, "formation": 4195, "ن": 1296, "voices": 5755, "290": 17222, "calcium": 13853, "1897": 6347, "wrestled": 20615, "zoological": 26168, "fundraising": 15524, "##橋": 30411, "blooded": 26064, "myspace": 24927, "habitats": 10746, "staging": 15308, "pets": 18551, "##achi": 21046, "progresses": 22901, "##obe": 20891, "suspiciously": 21501, "kraft": 26680, "##static": 16677, "peculiar": 14099, "grassy": 22221, "charged": 5338, "##zziness": 29212, "working": 2551, "directional": 20396, "kata": 29354, "pipeline": 13117, "83": 6640, "##working": 21398, "audi": 20075, "playhouse": 17408, "nell": 20970, "departed": 7745, "ı": 1104, "georgina": 27358, "##erving": 25164, "##eau": 10207, "understanding": 4824, "wong": 11789, "tray": 11851, "##ए": 29850, "cheered": 25471, "##icular": 21412, "##power": 11452, "##mac": 22911, "bland": 20857, "##hampton": 21946, "lithuania": 9838, "substantial": 6937, "store": 3573, "accustomed": 17730, "kay": 10905, "pipes": 12432, "[unused172]": 177, "##nad": 25389, "organism": 15923, "glided": 26936, "##lity": 18605, "sharp": 4629, "##ones": 21821, "telugu": 12180, "ₓ": 1563, "##ead": 13775, "hickory": 28158, "1624": 28531, "##’": 30056, "overlap": 17702, "##rop": 18981, "parole": 17393, "##ص": 29826, "motions": 15323, "rural": 3541, "##vis": 11365, "established": 2511, "vile": 25047, "##inates": 28184, "alarmed": 19260, "postseason": 17525, "♦": 1626, "hotel": 3309, "barons": 21487, "frontal": 19124, "searching": 6575, "obligation": 14987, "plate": 5127, "margot": 29210, "testified": 14914, "pew": 29071, "barbarian": 25075, "contracted": 11016, "##sley": 8002, "boot": 9573, "pseudonym": 13881, "asserting": 27644, "grinding": 16153, "##oge": 23884, "1825": 11384, "denotes": 14796, "conspiracy": 9714, "sandy": 7525, "propagation": 20594, "transient": 25354, "cyril": 16049, "positioning": 19120, "[unused640]": 645, "cartoons": 13941, "bearded": 23905, "macau": 16878, "338": 27908, "macy": 20914, "1648": 22533, "barren": 20225, "gore": 13638, "chesterfield": 22699, "annoying": 15703, "companies": 3316, "[unused473]": 478, "##yuan": 17236, "characteristic": 8281, "superiors": 22983, "1869": 7845, "hammering": 27883, "03": 6021, "clemens": 27277, "subsidiaries": 20178, "ousted": 28368, "losses": 6409, "talents": 11725, "jihad": 24815, "##ང": 29963, "##inas": 15227, "inclusive": 18678, "xl": 28712, "ina": 27118, "doubling": 19383, "minnie": 26188, "brutality": 24083, "regency": 15647, "relied": 13538, "##held": 24850, "moreover": 9308, "sugar": 5699, "burnley": 23028, "dragged": 7944, "holt": 12621, "leone": 13363, "ussr": 10331, "silver": 3165, "unexpectedly": 14153, "ད": 1428, "expanse": 22944, "condom": 20910, "infected": 10372, "betty": 9306, "##iation": 18963, "signal": 4742, "speeds": 10898, "##now": 19779, "##↔": 30115, "caliph": 22733, "dunedin": 22020, "cop": 8872, "##nia": 6200, "recounted": 22906, "hurled": 24025, "38th": 22051, "tigers": 7600, "cardinals": 9310, "[unused764]": 769, "whig": 21632, "alberto": 12007, "##糹": 30460, "barrels": 13826, "adopt": 11092, "##н": 18947, "antrim": 24142, "m³": 14241, "##gree": 28637, "labyrinth": 24239, "##間": 30495, "[unused655]": 660, "hawaii": 7359, "sturdy": 23073, "##⟩": 30156, "1840s": 19308, "##aja": 22734, "trap": 8132, "ᄐ": 1467, "compound": 7328, "[unused249]": 254, "##lai": 19771, "harriet": 14207, "ethics": 9615, "forward": 2830, "tirana": 24631, "relentless": 21660, "thrust": 7400, "skopje": 29255, "woven": 17374, "hepatitis": 28389, "mn": 24098, "provide": 3073, "forcing": 6932, "244": 24194, "souza": 26598, "organs": 11595, "neighbourhood": 10971, "winced": 15574, "##le": 2571, "recommend": 16755, "transcript": 24051, "jerked": 8245, "theoretically": 22634, "funding": 4804, "##bury": 4917, "[unused314]": 319, "holiday": 6209, "##zai": 25290, "##xia": 14787, "1751": 24440, "##pate": 17585, "##kawa": 13069, "goodnight": 22708, "virginia": 3448, "siren": 19558, "##zation": 9276, "flavor": 14894, "transferred": 4015, "mw": 12464, "consulted": 17535, "sharply": 9249, "mata": 22640, "ka": 10556, "fujian": 29551, "tribes": 6946, "element": 5783, "earnings": 16565, "##‖": 30054, "jaenelle": 20757, "annabelle": 24722, "acheron": 21427, "sensors": 13907, "dorothea": 24052, "lister": 27177, "double": 3313, "might": 2453, "harmless": 19741, "caldwell": 16589, "nurses": 11500, "psi": 17816, "debuted": 6006, "ceilings": 21098, "1940s": 7675, "inherent": 16112, "constantin": 27991, "##tre": 7913, "lloyd": 6746, "real": 2613, "super": 3565, "warring": 28509, "204": 19627, "karen": 8129, "liquidation": 28763, "##crow": 24375, "##ʲ": 29707, "18": 2324, "##ition": 22753, "mercenaries": 19331, "##eri": 11124, "consort": 13440, "spell": 6297, "ᆨ": 1484, "kaladin": 22588, "turnout": 15512, "herzegovina": 11453, "viii": 9937, "face": 2227, "readers": 8141, "##金": 30490, "48th": 27787, "##dle": 10362, "antibody": 27781, "herds": 28822, "##icing": 23553, "transports": 19003, "scandal": 9446, "benches": 19571, "35th": 20198, "purcell": 26429, "##ials": 26340, "incidents": 10444, "several": 2195, "mont": 18318, "conferences": 9281, "##kos": 15710, "##ova": 7103, "survival": 7691, "##walker": 26965, "undead": 17315, "method": 4118, "perfect": 3819, "328": 25256, "posed": 13686, "bruises": 18438, "objective": 7863, "##ls": 4877, "##ₛ": 30098, "tossing": 15021, "grill": 18651, "contacts": 10402, "bluegrass": 21286, "戦": 1856, "spends": 15970, "##otho": 29288, "##cked": 18141, "wet": 4954, "reacher": 22970, "filmmaker": 12127, "inaugurated": 11070, "fond": 13545, "dreaming": 12802, "histories": 15215, "##aru": 15728, "##tyle": 27983, "bassett": 28303, "constructive": 26157, "holiness": 27692, "performers": 9567, "bolsheviks": 28755, "保": 1766, "reconstructed": 14858, "grinned": 6973, "##ect": 22471, "success": 3112, "1979": 3245, "##med": 7583, "anchor": 8133, "##tarian": 28897, "emir": 23434, "clench": 26753, "advocate": 8175, "」": 1642, "##liner": 20660, "立": 1931, "grape": 14722, "##nical": 20913, "overseas": 6931, "cas": 25222, "melody": 8531, "eton": 21687, "roll": 4897, "shrub": 15751, "restrain": 28467, "veterans": 8244, "ɲ": 1123, "consequently": 8821, "##pes": 10374, "thessaloniki": 23162, "facto": 13743, "javier": 13824, "##lb": 20850, "ah": 6289, "diagrams": 26309, "raked": 22438, "institutional": 12148, "suit": 4848, "[unused246]": 251, "##iso": 19565, "africans": 18076, "二": 1752, "rb": 21144, "midst": 12930, "townland": 23635, "ན": 1429, "sights": 15925, "argus": 25294, "distributor": 16632, "##?": 29632, "stint": 12116, "touches": 12817, "estate": 3776, "event": 2724, "invoked": 24959, "berlin": 4068, "italy": 3304, "tristan": 9822, "respondents": 25094, "rockets": 12496, "turtles": 16489, "waste": 5949, "mons": 29408, "##sive": 12742, "formal": 5337, "singled": 25369, "##nium": 14907, "circular": 8206, "qur": 23183, "blues": 5132, "christopher": 5696, "##wat": 24281, "##jit": 18902, "##真": 30447, "##mable": 24088, "cartel": 21680, "##w": 2860, "sarawak": 21546, "mischievous": 25723, "gottfried": 26142, "##tea": 27058, "gia": 27699, "##sa": 3736, "ones": 3924, "older": 3080, "chaplain": 14011, "vessel": 6258, "1930s": 5687, "352": 28906, "8th": 5893, "armor": 8177, "rookie": 8305, "namely": 8419, "requests": 11186, "caliber": 15977, "waist": 5808, "tub": 14366, "strawberry": 16876, "##over": 7840, "privileged": 21598, "##nberger": 28825, "outside": 2648, "##zek": 24506, "surprises": 20096, "kashmir": 13329, "growled": 8881, "[unused928]": 933, "celia": 18020, "egyptian": 6811, "vermont": 8839, "darcy": 17685, "luce": 19913, "##voking": 22776, "foe": 22277, "rich": 4138, "austen": 24177, "avila": 29079, "integration": 8346, "bared": 23485, "lawyers": 9559, "hornets": 24855, "к": 1189, "honored": 8686, "brendan": 15039, "##ם": 29800, "[unused19]": 20, "revolving": 24135, "##њ": 29763, "marx": 13518, "tab": 21628, "##oles": 29111, "phenomena": 13352, "longevity": 26906, "inland": 9514, "reducing": 8161, "vito": 25550, "25": 2423, "moments": 5312, "##lva": 22144, "buddha": 11903, "surveyor": 17169, "##sos": 17063, "##内": 30299, "vivian": 13801, "antoinette": 28429, "rana": 22175, "rating": 5790, "suv": 15620, "sliding": 8058, "motorcycle": 9055, "##nary": 24041, "##sberg": 11711, "disclosure": 19380, "inspecting": 29508, "ono": 21058, "commendation": 23039, "brady": 10184, "assault": 6101, "reddish": 14182, "exploding": 20728, "basin": 6403, "iroquois": 23015, "vacuum": 11641, "supporter": 10129, "##®": 29656, "selected": 3479, "specimens": 9908, "[unused273]": 278, "knotted": 27039, "outs": 21100, "##bolic": 18647, "[unused220]": 225, "advancement": 12607, "strain": 10178, "braced": 15515, "uranium": 14247, "unspecified": 25851, "##ific": 18513, "attended": 3230, "lively": 17133, "1878": 7261, "complaint": 12087, "supervised": 13588, "／": 1992, "single": 2309, "##ก": 29945, "wearing": 4147, "[unused536]": 541, "poetry": 4623, "122": 13092, "jones": 3557, "##fare": 17883, "disaster": 7071, "##巿": 30363, "adler": 17969, "staples": 24533, "novelist": 9974, "talmud": 24380, "##ania": 13241, "intercity": 20651, "gustavo": 24801, "30th": 13293, "##dition": 20562, "freak": 11576, "redesign": 25136, "ecological": 12231, "##rga": 28921, "##的": 30442, "tiffany": 14381, "##rates": 20370, "woke": 8271, "##φ": 29736, "mirror": 5259, "¾": 1093, "273": 25371, "suggests": 6083, "##jn": 22895, "lowest": 7290, "weiss": 17889, "э": 1208, "genre": 6907, "##仁": 30284, "mammoth": 23714, "sioux": 16615, "##ᅥ": 30008, "darts": 17493, "agitation": 22356, "sms": 22434, "combinations": 14930, "volley": 28073, "##mill": 19912, "stomach": 4308, "##cala": 25015, "##ld": 6392, "##aves": 21055, "auxiliary": 9830, "##parts": 26950, "contracts": 8311, "bernie": 15941, "[unused213]": 218, "naturally": 8100, "densely": 19441, "gangster": 20067, "pleading": 16418, "immediate": 6234, "lyrics": 4581, "##valent": 24879, "anglo": 7819, "##ز": 29823, "##rath": 27362, "brings": 7545, "[unused557]": 562, "##ʳ": 29708, "collections": 6407, "gloves": 11875, "##st": 3367, "arms": 2608, "##irs": 18894, "brenda": 15507, "elections": 3864, "13": 2410, "##eger": 26320, "loft": 19459, "anticipation": 11162, "##proof": 18907, "mandated": 16714, "deliveries": 23534, "socially": 14286, "telephone": 7026, "ignatius": 26841, "avalanche": 18846, "grasp": 10616, "creeping": 18266, "##owski": 15249, "colored": 6910, "attention": 3086, "lance": 9993, "美": 1935, "promoter": 15543, "1833": 11040, "intriguing": 23824, "demonstrators": 28337, "mimic": 23150, "ת": 1267, "sigh": 6682, "final": 2345, "##fu": 11263, "observed": 5159, "substitute": 7681, "##cite": 17847, "nervously": 12531, "licenses": 15943, "clumsy": 22902, "headlined": 25214, "view": 3193, "unemployment": 12163, "##eering": 20550, "1763": 18432, "onslaught": 28644, "additions": 13134, "mounds": 19503, "nodding": 11863, "switches": 15924, "##ট": 29895, "yue": 27163, "##gating": 16961, "criticised": 10648, "##ᅲ": 30016, "exceptionally": 17077, "##win": 10105, "##ה": 29128, "bates": 11205, "officials": 4584, "[unused952]": 957, "##ッ": 30237, "ר": 1265, "earthquake": 8372, "bianca": 18051, "moines": 23286, "optics": 21026, "seen": 2464, "[unused731]": 736, "make": 2191, "1990": 2901, "groningen": 29070, "canadian": 3010, "bandages": 27993, "fiona": 13073, "##hand": 11774, "mu": 14163, "steaming": 19986, "chang": 11132, "probe": 15113, "##♭": 24102, "crushing": 14527, "##pher": 27921, "regulates": 26773, "considers": 10592, "grassroots": 23299, "fm": 4718, "lauren": 10294, "summary": 12654, "[unused275]": 280, "akin": 17793, "drained": 11055, "##∨": 30130, "crouch": 21676, "slope": 9663, "emerge": 12636, "keyboardist": 20173, "interceptions": 18387, "realised": 11323, "sylvester": 20016, "visiting": 5873, "jul": 21650, "trip": 4440, "##dies": 18389, "recalling": 21195, "suppose": 6814, "gross": 7977, "##nikov": 22576, "##il": 4014, "bypass": 11826, "cabin": 6644, "##tara": 27115, "translates": 16315, "lisa": 7059, "grumbled": 17030, "encouraging": 11434, "scored": 3195, "milling": 22491, "acoustic": 6490, "tory": 17117, "littered": 24777, "greasy": 26484, "buyer": 17634, "[unused867]": 872, "undrafted": 21347, "##zell": 24085, "patrice": 29527, "passing": 4458, "selena": 19166, "application": 4646, "richest": 18429, "faculties": 18658, "##beck": 12750, "##ral": 7941, "plump": 26731, "pioneers": 13200, "す": 1658, "##ille": 10484, "ex": 4654, "[unused573]": 578, "jan": 5553, "iihf": 26904, "ways": 3971, "##つ": 30190, "158": 17696, "##lford": 23211, "raaf": 22709, "##vid": 17258, "giorgio": 17697, "gripped": 9672, "##claim": 25154, "banners": 23562, "主": 1747, "armed": 4273, "thirties": 26313, "valkyrie": 26696, "splendid": 21459, "rasped": 28459, "malacca": 28481, "old": 2214, "telenovela": 25754, "frigates": 22833, "bottled": 26071, "idea": 2801, "meet": 3113, "##ett": 6582, "creature": 6492, "luxembourg": 10765, "greens": 15505, "hearing": 4994, "[unused267]": 272, "oh": 2821, "##ᵇ": 30033, "periodical": 21802, "inhuman": 29582, "muscled": 24909, "properties": 5144, "##yx": 17275, "cramped": 22766, "rhone": 22351, "critic": 6232, "robb": 26211, "postal": 10690, "modify": 19933, "och": 28166, "##view": 8584, "photography": 5855, "obstacles": 15314, "[unused58]": 59, "##ன": 29923, "aggregator": 24089, "jedi": 27273, "fibers": 16662, "tulane": 27437, "д": 1184, "greco": 18180, "##ᵏ": 30037, "konstantin": 23989, "##position": 26994, "cellar": 15423, "autobiographical": 18534, "concurrent": 16483, "composing": 16572, "glacial": 17381, "compelling": 17075, "termination": 18287, "turbo": 15386, "physicians": 11572, "##⊕": 30139, "webb": 10923, "delegation": 10656, "reliefs": 27670, "[unused207]": 212, "##歌": 30412, "##cut": 12690, "teeth": 4091, "##tment": 21181, "小": 1829, "institutions": 4896, "##د": 15394, "louvre": 25110, "##vel": 15985, "##em": 6633, "wigan": 15598, "commenced": 8420, "hearst": 25419, "mixer": 23228, "vaccines": 28896, "brass": 8782, "link": 4957, "web": 4773, "##oko": 16366, "##lena": 20844, "aspect": 7814, "cuff": 26450, "sheets": 8697, "longer": 2936, "breast": 7388, "budget": 5166, "canteen": 26449, "docked": 25727, "257": 24368, "##ation": 3370, "em": 7861, "underwater": 11564, "s": 1055, "##ky": 4801, "bandit": 25334, "nominally": 24207, "magician": 16669, "##ս": 29781, "##wl": 13668, "locus": 25206, "rivers": 5485, "p": 1052, "christi": 21359, "prentice": 23429, "kaitlyn": 28584, "##patient": 24343, "investigating": 11538, "greene": 11006, "hooks": 18008, "bo": 8945, "##tute": 24518, "##vyn": 23487, "marketed": 11625, "lowell": 15521, "antioch": 19078, "rock": 2600, "1982": 3196, "##chment": 22729, "wyatt": 12986, "imperative": 23934, "254": 22234, "د": 1278, "german": 2446, "billboard": 4908, "reunification": 28044, "department": 2533, "refugee": 13141, "grandson": 7631, "shamrock": 28782, "due": 2349, "##ond": 15422, "##hair": 26227, "melodic": 17187, "chunk": 20000, "ruthless": 18101, "##ell": 5349, "ₘ": 1567, "ramsey": 15092, "reasoned": 24557, "zagreb": 12974, "##ン": 30263, "ferrer": 28390, "foot": 3329, "soaking": 22721, "revisions": 24699, "magnate": 27470, "hurriedly": 23878, "cora": 17195, "tunic": 23002, "##isson": 24077, "##icio": 27113, "[unused565]": 570, "honours": 8762, "italia": 13052, "rna": 12987, "##ure": 5397, "pathology": 19314, "##amy": 24079, "##romatic": 23645, "books": 2808, "新": 1862, "##osity": 25949, "alt": 12456, "attitude": 7729, "capt": 14408, "migrated": 13447, "timed": 22313, "##nger": 11392, "##inating": 19185, "carpet": 10135, "bolivar": 22118, "renowned": 8228, "vineyards": 20597, "cameras": 8629, "vessels": 6470, "shortages": 22623, "wilcox": 23926, "or": 2030, "tournament": 2977, "tor": 17153, "stockton": 19161, "rises": 9466, "##ri": 3089, "##dating": 16616, "jeans": 6312, "1960s": 4120, "modernized": 27140, "##itt": 12474, "topical": 25665, "hire": 10887, "nato": 10079, "panda": 25462, "desk": 4624, "dobson": 27679, "founded": 2631, "suzuki": 14278, "李": 1877, "speaks": 8847, "invested": 11241, "accurate": 8321, "1739": 25801, "wince": 29585, "[unused802]": 807, "skill": 8066, "vivo": 24269, "accepts": 13385, "clothing": 5929, "imagining": 16603, "comprehend": 22346, "said": 2056, "##ality": 23732, "christ": 4828, "1802": 13515, "##ffie": 29055, "hindus": 18221, "1632": 28216, "efficient": 8114, "waking": 12447, "valley": 3028, "##isi": 17417, "##tenberg": 21806, "##व": 29871, "coptic": 27672, "spider": 6804, "freaks": 29526, "swinging": 11820, "##used": 13901, "eurovision": 12714, "consortium": 12360, "##trics": 29392, "##ppy": 27659, "##idon": 28201, "oskar": 28626, "motorized": 26172, "gettysburg": 22577, "nursing": 8329, "gerard": 11063, "seminar": 18014, "##ও": 29888, "##chang": 22305, "blanche": 18158, "dolphins": 13600, "##sian": 17043, "fraternity": 13577, "conditioned": 22442, "##cule": 21225, "munoz": 23685, "nah": 20976, "[unused519]": 524, "unavailable": 20165, "stocked": 24802, "pastry": 27060, "saddle": 12279, "relevance": 21923, "##rkin": 26891, "strangely": 13939, "##ton": 2669, "ultra": 11087, "vanderbilt": 17066, "##ici": 28775, "targeted": 9416, "tyler": 7482, "⋅": 1614, "notoriety": 23215, "mathematician": 13235, "¼": 1091, "##⊂": 30137, "knuckles": 13513, "session": 5219, "##ager": 17325, "development": 2458, "##cola": 26289, "obsessed": 15896, "phd": 8065, "guggenheim": 20402, "inflated": 29561, "hacker": 23307, "##hwa": 18663, "wander": 17677, "refreshing": 27150, "curiously": 16484, "##stein": 8602, "traders": 13066, "groans": 27778, "northbound": 20055, "##ctor": 16761, "mushrooms": 23827, "premiership": 11264, "borrowed": 11780, "##ར": 29970, "hearted": 18627, "clinch": 29119, "hasn": 8440, "geometry": 10988, "20s": 27074, "relic": 24933, "elevation": 6678, "##acious": 20113, "cooper": 6201, "##fication": 10803, "fbi": 8495, "[unused898]": 903, "580": 23712, "gabled": 26182, "sprayed": 25401, "##nard": 16564, "plateau": 9814, "achieve": 6162, "##enas": 26474, "cruisers": 16722, "[unused469]": 474, "smoothing": 27045, "1857": 8204, "slashed": 23587, "levine": 17780, "angus": 13682, "seem": 4025, "fiercely": 16265, "issuing": 15089, "teaching": 4252, "conditional": 18462, "##rwin": 27349, "mills": 6341, "##comb": 18274, "breakdown": 12554, "atv": 29108, "export": 9167, "##龸": 30509, "bus": 3902, "episcopal": 9134, "fines": 21892, "freyja": 7075, "intelligence": 4454, "grip": 6218, "progressing": 27673, "[unused185]": 190, "林": 1881, "kurdish": 15553, "##amine": 19915, "ops": 23092, "##naud": 26160, "faculty": 4513, "vendors": 17088, "hispanic": 6696, "please": 3531, "pendleton": 24349, "##agi": 22974, "[unused507]": 512, ";": 1025, "vittorio": 25914, "hurts": 13403, "theology": 8006, "deficit": 15074, "foliage": 19624, "[unused705]": 710, "balancing": 20120, "patronage": 15694, "snyder": 17840, "copper": 6967, "1736": 28192, "##司": 30317, "##ary": 5649, "ま": 1677, "}": 1065, "pointer": 20884, "corpus": 13931, "destroying": 9846, "canucks": 26177, "metabolism": 18089, "##tt": 4779, "straighten": 28568, "steve": 3889, "chefs": 27828, "manipulate": 17708, "intro": 17174, "nostalgia": 26968, "1914": 4554, "chemistry": 6370, "parrot": 22530, "playable": 16854, "##vich": 12933, "spectators": 12405, "traverse": 20811, "##rist": 15061, "grimsby": 24470, "iced": 28248, "organisations": 8593, "visits": 7879, "canterbury": 9976, "story": 2466, "corridor": 7120, "[unused627]": 632, "armchair": 29372, "efficiency": 8122, "concussion": 23159, "registering": 25719, "[unused390]": 395, "ら": 1685, "athletics": 6482, "archdeacon": 21742, "cooled": 12981, "doubtful": 21888, "prelude": 19508, "stylized": 19551, "casa": 14124, "[unused653]": 658, "mozambique": 16274, "sing": 6170, "interventions": 19388, "drops": 9010, "rescuing": 23659, "##udge": 15979, "bal": 28352, "helpless": 13346, "slap": 14308, "manufacturing": 5814, "dream": 3959, "seized": 8243, "habitat": 6552, "ए": 1314, "##cated": 12921, "lux": 28359, "octave": 21817, "⊗": 1613, "noted": 3264, "unfair": 15571, "karim": 25461, "lucas": 6326, "##sson": 7092, "[unused191]": 196, "identify": 6709, "piracy": 24386, "judging": 13325, "yeomanry": 26883, "deliberately": 9969, "##hesis": 24124, "registration": 8819, "sends": 10255, "jingle": 29262, "##mot": 18938, "streaks": 21295, "[unused981]": 986, "exactly": 3599, "corner": 3420, "syracuse": 11736, "1540": 27536, "##§": 29650, "goin": 17249, "harcourt": 22714, "fruits": 10962, "[unused618]": 623, "vines": 16702, "challenger": 12932, "dai": 18765, "operatives": 25631, "dalai": 28511, "logic": 7961, "panthers": 12915, "perspectives": 15251, "indifferent": 24436, "judicial": 8268, "282": 26267, "630": 23609, "unfinished": 14342, "bent": 6260, "প": 1367, "manuscript": 8356, "inactivated": 15663, "sausage": 24165, "adorned": 19189, "attorney": 4905, "joshi": 26645, "alistair": 23752, "qualifications": 15644, "armenian": 7508, "sultanate": 21308, "peerage": 18760, "gandhi": 12338, "deported": 17929, "vikings": 13468, "##lino": 25226, "kyushu": 25885, "88": 6070, "bruno": 10391, "softly": 5238, "buckinghamshire": 21712, "whisper": 7204, "westchester": 25489, "##dur": 24979, "##zzy": 28753, "indochina": 27053, "##suit": 28880, "bauer": 17838, "##using": 18161, "##lies": 11983, "hum": 14910, "panther": 15133, "superintendent": 9133, "##farlane": 23511, "transplant": 22291, "fifty": 5595, "spokesperson": 15974, "[unused606]": 611, "intrinsic": 23807, "james": 2508, "diplomacy": 17610, "graph": 10629, "dante": 9649, "daggers": 24210, "00pm": 27995, "scheduled": 5115, "josephine": 16117, "fourier": 26899, "radha": 26498, "##gens": 21230, "##pur": 5311, "##ronia": 28140, "sovereignty": 12601, "intentional": 21249, "organize": 10939, "##ᵒ": 30039, "##ezer": 25733, "interred": 13917, "portico": 23104, "##₎": 30088, "##qvist": 28705, "processor": 13151, "carpathian": 26349, "##anda": 13832, "##dication": 25027, "##ध": 29862, "##et": 3388, "##gni": 29076, "improper": 24156, "injustice": 21321, "strange": 4326, "concordia": 24982, "atp": 12649, "yer": 20416, "cuckoo": 29010, "strained": 12250, "##mara": 28225, "neoclassical": 22657, "leaking": 24325, "addict": 26855, "willis": 12688, "elephants": 16825, "##ship": 9650, "presenters": 25588, "##ives": 24653, "picked": 3856, "porte": 25927, "underlying": 10318, "bounds": 19202, "me": 2033, "[unused53]": 54, "surgeon": 9431, "201": 16345, "units": 3197, "sell": 5271, "mexico": 3290, "fay": 23201, "shu": 18454, "##ndon": 19333, "sampling": 16227, "implant": 27159, "御": 1847, "arcadia": 25178, "marries": 19941, "betray": 20895, "withdrawn": 9633, "haze": 16332, "error": 7561, "shetland": 25552, "##₹": 30104, "##rise": 29346, "headline": 17653, "##eb": 15878, "massacre": 9288, "thatcher": 21127, "ml": 19875, "sudan": 10411, "lyndon": 23037, "##م": 22192, "reply": 7514, "schwartz": 16756, "estrada": 26482, "grouping": 19765, "harmonic": 19452, "swift": 9170, "##balls": 18510, "overhead": 8964, "distracted": 11116, "enactment": 26465, "pier": 10356, "bars": 6963, "##ography": 9888, "mania": 29310, "##vie": 13469, "quarters": 7728, "implementing": 14972, "##woods": 25046, "credible": 23411, "##lining": 16992, "pulling": 4815, "ζ": 1160, "foreman": 18031, "claus": 19118, "##phy": 21281, "prefer": 9544, "53": 5187, "ponder": 29211, "mined": 21846, "##ふ": 30200, "oppressive": 28558, "concessions": 20638, "background": 4281, "heaven": 6014, "finale": 9599, "critics": 4401, "markus": 23030, "saturday": 5095, "daughter": 2684, "##ub": 12083, "##ʌ": 29700, "drives": 9297, "brands": 9639, "##hyl": 29598, "##sso": 24137, "##yala": 28617, "fife": 20537, "tess": 15540, "ellen": 9155, "velvet": 10966, "bea": 26892, "dormant": 22170, "[unused919]": 924, "discouraged": 22585, "ant": 14405, "surpassed": 15602, "charming": 11951, "##fting": 26169, "being": 2108, "authority": 3691, "##hesion": 21471, "saskatoon": 25447, "feldman": 26908, "##gues": 22967, "communism": 15523, "gas": 3806, "bomber": 9472, "##ι": 18199, "cardinal": 7185, "[unused263]": 268, "lucifer": 24184, "skirts": 18184, "fuel": 4762, "score": 3556, "journal": 3485, "take": 2202, "dismissal": 15322, "##cao": 20808, "74": 6356, "traveling": 7118, "##sef": 20106, "build": 3857, "citation": 11091, "myself": 2870, "illustrations": 11249, "scheduling": 19940, "booking": 21725, "workshops": 9656, "desperately": 9652, "##ern": 11795, "2001": 2541, "lesions": 22520, "##less": 3238, "rousseau": 26868, "universally": 21186, "awaited": 19605, "ק": 1264, "depicted": 8212, "bonnie": 12220, "remembrance": 19451, "supportive": 16408, "##½": 13714, "clarified": 20485, "garcia": 7439, "##pass": 15194, "[unused356]": 361, "evangelical": 11295, "[unused543]": 548, "austrian": 6161, "415": 24690, "nobody": 6343, "regulation": 7816, "[unused495]": 500, "ho": 7570, "authorship": 26324, "gradient": 17978, "sunlight": 9325, "cartoonist": 19659, "block": 3796, "elise": 14251, "creepy": 17109, "renew": 20687, "1883": 7257, "evangelist": 24036, "rewards": 19054, "kimberley": 25004, "antennas": 26315, "1807": 13206, "ufo": 24321, "mcdonald": 9383, "[unused400]": 405, "##utive": 28546, "hardest": 18263, "lake": 2697, "700": 6352, "contestants": 10584, "jokes": 13198, "57th": 28623, "chow": 20209, "excursion": 26144, "protested": 11456, "ryu": 19367, "papers": 4981, "lily": 7094, "outline": 12685, "diagnosis": 11616, "response": 3433, "##boy": 11097, "bingo": 27137, "1781": 16788, "guess": 3984, "##ß": 19310, "gasp": 12008, "schmidt": 12940, "prey": 8336, "##quent": 15417, "blur": 14819, "##gus": 12349, "throne": 6106, "wrocław": 25160, "let": 2292, "student": 3076, "…": 1529, "##aris": 23061, "ripe": 22503, "##abas": 27537, "artificial": 7976, "thump": 21324, "xi": 8418, "augmented": 19335, "searing": 25764, "vein": 12818, "exclusively": 7580, "##listic": 27348, "colin": 6972, "[unused455]": 460, "payments": 10504, "’": 1521, "margarita": 24570, "rocks": 5749, "adversary": 27248, "submit": 12040, "reopened": 11882, "microwave": 18302, "universidad": 16501, "##ware": 8059, "outlaws": 23107, "[unused915]": 920, "martin": 3235, "andrews": 9261, "refueling": 23026, "expense": 10961, "peacock": 18931, "retail": 7027, "mechanism": 7337, "transmissions": 21670, "mansion": 7330, "courtney": 14139, "##ossa": 21842, "sheikh": 12840, "1927": 4764, "[unused503]": 508, "##mons": 16563, "sorority": 27600, "##rot": 21709, "drugged": 25483, "academies": 20994, "##vate": 16952, "grayson": 17556, "ernst": 10728, "insignia": 16751, "straw": 13137, "ljubljana": 21588, "pity": 12063, "##´": 29658, "##till": 28345, "watching": 3666, "##ista": 11921, "rams": 13456, "malayalam": 12998, "athena": 21880, "##ʿ": 29714, "sound": 2614, "ᄏ": 1466, "stadium": 3346, "medial": 23828, "waterfall": 14297, "germanic": 15139, "clocks": 20940, "fisher": 8731, "family": 2155, "analyze": 17908, "##hora": 16977, "keen": 10326, "shoot": 5607, "preserved": 6560, "loved": 3866, "anytime": 15933, "adolescence": 29101, "sake": 8739, "cactus": 23265, "randolph": 13031, "busch": 15840, "havilland": 23994, "johannesburg": 15976, "favor": 5684, "firth": 25138, "##endez": 28787, "exercise": 6912, "claudius": 25017, "mused": 22335, "tingle": 25792, "saxon": 10038, "iris": 11173, "frogs": 17582, "questioned": 8781, "rhyme": 20622, "##cum": 24894, "##gar": 6843, "##crats": 23423, "odds": 10238, "possibly": 4298, "101": 7886, "blaze": 15347, "coherent": 18920, "laszlo": 28226, "sharpened": 26694, "olympian": 25977, "enemy": 4099, "wilkins": 22745, "##ད": 29964, "respectable": 19416, "##slow": 26338, "##sby": 14478, "forts": 15421, "bmw": 13154, "##founded": 21001, "rags": 26346, "specimen": 11375, "balkan": 17581, "recognised": 7843, "##cini": 27085, "jersey": 3933, "leopard": 16240, "##9th": 25660, "##nov": 16693, "yoo": 26823, "starring": 4626, "captained": 16041, "rushes": 18545, "broadcasting": 5062, "emile": 17127, "kilometers": 7338, "carnage": 27450, "##hila": 26415, "sleek": 21185, "vie": 20098, "##drik": 28730, "boyle": 16694, "teaser": 27071, "landslide": 20148, "hyper": 23760, "boxer": 10423, "casey": 9036, "##oft": 15794, "ping": 17852, "reject": 15454, "sleeps": 25126, "##erly": 12561, "訁": 1949, "donnelly": 28317, "horrified": 14603, "##grating": 28183, "##word": 18351, "##line": 4179, "ordained": 9492, "##books": 17470, "seller": 14939, "paranormal": 20725, "trying": 2667, "bremen": 16314, "北": 1781, "canyon": 8399, "barre": 23189, "banged": 22843, "sanitary": 25480, "siena": 23754, "egan": 27889, "pieter": 23759, "kenyan": 20428, "##rting": 24097, "substitution": 20885, "##havan": 24652, "blushing": 25771, "wessex": 27886, "##ga": 3654, "295": 21679, "university": 2118, "purchasing": 13131, "inter": 6970, "zulu": 27359, "victories": 9248, "wrote": 2626, "[unused232]": 237, "##cede": 22119, "lawsuits": 20543, "##cchi": 25955, "kneeling": 16916, "singing": 4823, "enter": 4607, "standings": 11869, "[unused322]": 327, "edgar": 9586, "shortage": 15843, "1868": 7582, "willing": 5627, "alternatives": 15955, "paths": 10425, "##ny": 4890, "tablets": 17596, "est": 9765, "offense": 10048, "maintained": 5224, "grief": 9940, "##phi": 21850, "prolonged": 15330, "newell": 28052, "##scopic": 24895, "directs": 23303, "##qu": 28940, "戸": 1857, "child": 2775, "unfortunately": 6854, "[unused181]": 186, "everton": 18022, "piccolo": 29368, "baby": 3336, "hearings": 19153, "grown": 4961, "guernsey": 24640, "archie": 13255, "##movable": 25661, "republicans": 10643, "medicare": 27615, "holding": 3173, "additionally": 5678, "spoon": 15642, "ª": 1076, "##wala": 23877, "drawn": 4567, "yielded": 17544, "##λ": 29727, "chevrolet": 14724, "##ส": 29956, "exercises": 11110, "hood": 7415, "industries": 6088, "prisoner": 7267, "knees": 5042, "##tie": 9515, "membership": 5779, "continuous": 7142, "punished": 14248, "郡": 1959, "atoll": 22292, "problematic": 18636, "nobility": 11760, "##sboro": 25623, "##idge": 13623, "bonus": 6781, "road": 2346, "ェ": 1697, "wrestling": 4843, "nighttime": 26031, "##yson": 25385, "dutton": 28784, "speeches": 13867, "pinch": 18392, "novella": 20674, "halt": 9190, "effectiveness": 12353, "baptised": 28798, "##lent": 16136, "aroma": 23958, "fen": 21713, "eine": 27665, "seasons": 3692, "planning": 4041, "[unused927]": 932, "reformed": 9114, "tesla": 26060, "dow": 23268, "apparatus": 14709, "basket": 10810, "331": 27533, "[unused862]": 867, "spreads": 20861, "overseen": 22485, "actors": 5889, "##ba": 3676, "##washed": 27283, "swings": 18755, "effects": 3896, "26th": 14935, "brisk": 28022, "##tness": 27401, "##terol": 27833, "##rith": 24292, "##gen": 6914, "confessions": 21444, "cleaned": 12176, "##ipes": 28108, "leo": 6688, "fellow": 3507, "cw": 19296, "louisa": 15731, "[unused619]": 624, "bollywood": 16046, "companion": 7452, "lanterns": 26078, "saying": 3038, "threatens": 17016, "aristocratic": 19774, "korean": 4759, "abroad": 6917, "##ω": 29739, "gibbs": 15659, "sculptors": 28417, "jays": 18930, "medicinal": 20632, "pursuit": 8463, "firms": 9786, "73": 6421, "suzanne": 15146, "midi": 22265, "##wt": 26677, "woo": 15854, "wildly": 13544, "##cano": 23803, "355": 26271, "bug": 11829, "fridays": 26587, "embroidery": 29507, "congo": 9030, "##lative": 26255, "y": 1061, "uncertainty": 12503, "##dhar": 25632, "drains": 18916, "statement": 4861, "promo": 19430, "##nail": 25464, "hideous": 22293, "landings": 16805, "##ov": 4492, "セ": 1708, "unity": 8499, "stature": 21120, "##lists": 27103, "assumed": 5071, "far": 2521, "gibraltar": 12272, "##load": 11066, "gus": 12670, "adolescent": 20274, "respectively": 4414, "benefit": 5770, "lucrative": 21115, "poultry": 22468, "rq": 28134, "glazed": 19724, "slovakia": 10991, "could": 2071, "[unused664]": 669, "##stadt": 21543, "interface": 8278, "##unds": 26698, "crashing": 12894, "broker": 20138, "ft": 3027, "sax": 19656, "beneficial": 15189, "cups": 10268, "##uit": 14663, "imports": 17589, "chop": 24494, "paradox": 20506, "prohibiting": 26325, "##iah": 12215, "stung": 19280, "severe": 5729, "liberalism": 26505, "geoffrey": 11023, "denver": 7573, "slide": 7358, "amsterdam": 7598, "[unused652]": 657, "hamlet": 8429, "ganga": 28646, "demo": 9703, "mechanics": 9760, "smashed": 14368, "infectious": 16514, "##cki": 18009, "performs": 10438, "moonlight": 11986, "tight": 4389, "instance": 6013, "f": 1042, "blending": 23293, "reaches": 6561, "止": 1887, "voting": 6830, "rice": 5785, "concourse": 28571, "##eed": 13089, "##mun": 23041, "jenny": 8437, "drew": 3881, "payload": 18093, "narration": 21283, "nichols": 15746, "rescued": 10148, "##ker": 5484, "killed": 2730, "aj": 19128, "050": 28714, "##eis": 17580, "##‡": 30062, "hydrogen": 9732, "shot": 2915, "walker": 5232, "##nes": 5267, "gland": 25320, "gaul": 26522, "##swell": 19228, "##ram": 6444, "##ams": 13596, "pin": 9231, "revolt": 10073, "##bee": 11306, "bowled": 19831, "ᵗ": 1505, "drumming": 22980, "heinrich": 10952, "possessive": 22105, "pagan": 14318, "##lley": 25105, "draped": 15098, "##₀": 17110, "1803": 12651, "##ag": 8490, "[unused343]": 348, "##pol": 18155, "137": 14989, "turn": 2735, "jurisdictions": 17370, "yoon": 24863, "##nem": 25832, "##ろ": 30215, "leeds": 7873, "this": 2023, "##nism": 28113, "sustainable": 9084, "gray": 3897, "lock": 5843, "rudolph": 18466, "fitz": 27706, "##nstein": 15493, "ndp": 21915, "york": 2259, "##pressed": 19811, "novo": 24576, "test": 3231, "feeding": 8521, "##a": 2050, "##元": 30295, "fledgling": 25954, "[unused875]": 880, "##ม": 29951, "suzy": 28722, "れ": 1688, "##cco": 21408, "owl": 13547, "ӏ": 1218, "##tose": 22282, "♠": 1623, "##lal": 13837, "ingram": 23231, "reeves": 17891, "lawful": 26410, "admitting": 17927, "trio": 7146, "revisited": 24354, "忄": 1850, "tries": 5363, "disruption": 20461, "lansing": 22304, "inn": 7601, "##guard": 18405, "functions": 4972, "belmont": 17449, "expansion": 4935, "billionaire": 22301, "##mler": 18602, "sergei": 14543, "bukit": 29007, "reductions": 25006, "[unused787]": 792, "[unused167]": 172, "skyscraper": 24581, "##liness": 20942, "statue": 6231, "dusseldorf": 18160, "flashes": 16121, "##ij": 28418, "substitutes": 29200, "clay": 5726, "assassins": 18364, "bog": 22132, "生": 1910, "[unused683]": 688, "positively": 13567, "asks": 5176, "lighthouse": 10171, "kenneth": 8856, "[unused255]": 260, "interviews": 7636, "constituted": 11846, "##viere": 27087, "##oe": 8913, "leung": 26037, "[unused118]": 123, "orton": 25161, "maureen": 19167, "##inae": 16414, "shin": 12277, "女": 1815, "##vn": 16022, "[unused180]": 185, "昭": 1868, "pamphlet": 19899, "32": 3590, "##gnant": 27881, "commentary": 8570, "toxicity": 22423, "##mmon": 24521, "[unused597]": 602, "nightmare": 10103, "##uck": 12722, "varies": 9783, "simulated": 23599, "provincial": 4992, "lightly": 8217, "central": 2430, "olympic": 4386, "##外": 30335, "topology": 19587, "soldiers": 3548, "charge": 3715, "mundane": 24684, "tre": 29461, "##oli": 10893, "kindly": 19045, "successive": 11165, "##era": 6906, "##wash": 28556, "[unused794]": 799, "saxophonist": 19977, "averaging": 14985, "[unused827]": 832, "rogers": 7369, "##ful": 3993, "##lates": 26786, "enjoyable": 22249, "kendrick": 25341, "badge": 10780, "monumental": 15447, "พ": 1414, "##ர": 29927, "##mori": 24610, "##cian": 14483, "emerges": 19391, "protruding": 23868, "rot": 18672, "fresno": 20840, "researches": 27338, "##eased": 25063, "spending": 5938, "£100": 27708, "##personal": 28823, "clarity": 15563, "danish": 5695, "##stems": 29189, "schemes": 11683, "ensemble": 7241, "##⺼": 30159, "bjorn": 24998, "montane": 21704, "bowls": 15220, "nueva": 24536, "apples": 18108, "##ool": 13669, "launched": 3390, "digit": 15340, "buzzed": 21377, "##than": 21604, "[unused980]": 985, "blooms": 29037, "##usia": 24118, "[unused90]": 91, "##ers": 2545, "gospels": 24131, "peripheral": 15965, "plans": 3488, "stamp": 11359, "analyzing": 20253, "mitochondrial": 23079, "walks": 7365, "sporting": 7419, "rebels": 8431, "servant": 7947, "symmetrical": 23476, "ptolemy": 23517, "descends": 23328, "karel": 28021, "presided": 15506, "##ee": 4402, "lair": 21039, "marcia": 22548, "prefect": 19402, "slab": 17584, "relational": 28771, "nervous": 6091, "asteroids": 26732, "bail": 15358, "[unused373]": 378, "seventies": 26232, "##che": 5403, "severed": 16574, "confirms": 23283, "##mbling": 29256, "##culture": 14561, "##eurs": 26744, "breeders": 20823, "torre": 22047, "juniors": 16651, "peeking": 28222, "concentrating": 16966, "##б": 29740, "п": 1194, "1981": 3261, "##emy": 26662, "brooks": 8379, "solutions": 7300, "camping": 13215, "ralph": 6798, "ricardo": 13559, "##ण": 29858, "wes": 14008, "##₈": 30084, "elect": 11322, "kelley": 19543, "grooves": 25880, "##bate": 20179, "warped": 25618, "##ɔ": 29679, "dutch": 3803, "1707": 25029, "1649": 26538, "forefront": 22870, "tribune": 10969, "attempting": 7161, "charts": 6093, "third": 2353, "complexity": 11619, "auschwitz": 24363, "thick": 4317, "spots": 7516, "naia": 29511, "##isman": 20257, "##ذ": 29822, "##vere": 28943, "northeast": 4794, "rhine": 10950, "transit": 6671, "ᵐ": 1502, "marching": 10998, "##寺": 30353, "##200": 28332, "marche": 28791, "never": 2196, "lorraine": 13895, "tomas": 12675, "bargaining": 21990, "icon": 12696, "highlighting": 20655, "##ito": 9956, "kelvin": 24810, "suspected": 6878, "lucan": 20764, "credits": 6495, "heated": 9685, "gps": 14658, "cells": 4442, "packaged": 21972, "##lund": 18028, "tenth": 7891, "untouched": 22154, "retain": 9279, "arrangements": 7565, "swimmers": 21669, "##roi": 26692, "spring": 3500, "culture": 3226, "##ca": 3540, "gregory": 7296, "neill": 11511, "coverage": 6325, "declined": 6430, "learning": 4083, "crescent": 13152, "##86": 20842, "cinemas": 19039, "ronnie": 11688, "truncated": 25449, "interests": 5426, "eased": 10987, "ミ": 1724, "depressed": 14777, "panama": 8515, "indiana": 5242, "magna": 20201, "wanted": 2359, "strike": 4894, "campeonato": 17675, "aquitaine": 24973, "pretended": 14688, "sobbing": 20040, "compiled": 9227, "wellington": 8409, "bc": 4647, "26": 2656, "functional": 8360, "trail": 4446, "sarah": 4532, "##teacher": 24741, "bark": 11286, "mississippi": 5900, "##xed": 19068, "hungarians": 24027, "skaters": 24789, "##inga": 28234, "hilary": 22744, "accumulation": 20299, "aires": 9149, "gazette": 11391, "sasha": 14673, "barbara": 6437, "ace": 9078, "galway": 14370, "mission": 3260, "gap": 6578, "hume": 20368, "geography": 10505, "##miya": 29312, "ᄃ": 1457, "##fra": 27843, "inscriptions": 12920, "mumbai": 8955, "calgary": 10112, "in": 1999, "compiling": 21953, "data": 2951, "daphne": 16847, "nazareth": 27192, "bari": 22466, "resumed": 7943, "##պ": 29780, "minerva": 27383, "integrity": 11109, "gift": 5592, "leasing": 26707, "highlands": 11784, "closeness": 28398, "mathias": 20494, "including": 2164, "dortmund": 23912, "[unused375]": 380, "##en": 2368, "bce": 10705, "##mini": 25300, "castes": 26254, "[unused746]": 751, "##tens": 25808, "vocabulary": 16188, "harris": 5671, "moritz": 28461, "metaphysical": 29081, "ヘ": 1721, "revival": 6308, "incentives": 21134, "sealing": 23038, "perception": 10617, "disagreement": 18185, "modeling": 11643, "##bol": 14956, "vernon": 11447, "sure": 2469, "##ucci": 16835, "216": 20294, "valle": 20171, "decides": 7288, "subfamily": 10946, "ugly": 9200, "commodity": 19502, "##oteric": 29112, "lara": 13679, "innocence": 12660, "##ius": 4173, "203": 18540, "bloomberg": 22950, "galician": 28830, "shielded": 25474, "widening": 17973, "ore": 10848, "milk": 6501, "settings": 10906, "1806": 12518, "州": 1836, "victorian": 6652, "1850s": 16488, "##tlan": 28922, "##phine": 20738, "417": 27519, "profitable": 15282, "copying": 24731, "vocal": 5554, "sequencing": 24558, "poem": 5961, "brothel": 27308, "resignation": 8172, "converse": 23705, "revised": 8001, "responses": 10960, "punching": 19477, "gs": 28177, "klan": 26613, "mane": 23055, "pearl": 7247, "chuckles": 26088, "耳": 1937, "specializes": 16997, "##13": 17134, "##gration": 29397, "persisted": 19035, "risks": 10831, "##rber": 20473, "##16": 16048, "answer": 3437, "##hang": 18003, "##म": 29867, "leon": 6506, "readiness": 19822, "ames": 19900, "chief": 2708, "applied": 4162, "patriarch": 12626, "gonzales": 24334, "##ய": 29926, "layers": 9014, "california": 2662, "[unused327]": 332, "##anor": 27869, "praying": 14488, "davies": 9082, "mobile": 4684, "exercised": 17747, "biologist": 21477, "defect": 21262, "mitch": 11857, "landfill": 28382, "##ona": 7856, "##hun": 17157, "merely": 6414, "##marine": 21966, "molten": 23548, "laundering": 28289, "wondered": 4999, "elevations": 18166, "intuitive": 29202, "##ly": 2135, "##ivating": 17441, "gil": 13097, "interdisciplinary": 18593, "mk": 12395, "blankets": 15019, "upcoming": 9046, "unicef": 29073, "dealings": 24069, "##mbled": 23931, "jens": 25093, "november": 2281, "##anus": 20849, "彳": 1845, "believing": 8929, "ribbon": 10557, "##rang": 24388, "everyone": 3071, "hybrid": 8893, "romanesque": 17135, "winning": 3045, "lori": 18669, "tyres": 24656, "foods": 9440, "[unused772]": 777, "extravagant": 27856, "encourage": 8627, "helium": 22764, "salvatore": 17485, "batter": 23801, "liturgy": 21176, "reasoning": 13384, "narrowly": 11866, "contract": 3206, "aaa": 13360, "who": 2040, "alike": 11455, "fascinated": 15677, "domesday": 22310, "mushroom": 18565, "millennium": 10144, "excused": 28512, "andrea": 8657, "meanings": 15383, "##xa": 18684, "serene": 25388, "influenza": 24442, "mercy": 8673, "mirage": 21483, "##nare": 26148, "dora": 21008, "arcs": 29137, "opened": 2441, "recalls": 17722, "”": 1524, "asturias": 26798, "##front": 12792, "##iving": 14966, "too": 2205, "wastewater": 28269, "spawning": 27957, "##ching": 8450, "bamboo": 15216, "maynard": 22130, "##bal": 10264, "lying": 4688, "cite": 21893, "ins": 16021, "persecution": 14522, "byzantine": 8734, "nikolay": 28494, "spears": 13957, "##dened": 24589, "reconnaissance": 8967, "careful": 6176, "chapter": 3127, "eat": 4521, "##nsen": 29428, "welch": 17939, "ᄅ": 1458, "raceway": 23018, "restarted": 25606, "cover": 3104, "##sion": 10992, "##ц": 29751, "atheist": 23503, "ernesto": 22428, "odisha": 21874, "1832": 10212, "##mpt": 27718, "stern": 8665, "[unused334]": 339, "##sford": 17658, "cuts": 7659, "disappointed": 9364, "##isance": 28138, "##iu": 17922, "##ρ": 29732, "aggravated": 25817, "[unused829]": 834, "luna": 12909, "##mering": 27851, "tanks": 7286, "##pr": 18098, "align": 25705, "destruction": 6215, "##avio": 28471, "ts": 24529, "bacteria": 10327, "resulting": 4525, "##ட": 29920, "doors": 4303, "truck": 4744, "barge": 19398, "fearless": 22518, "suspense": 23873, "##eson": 21421, "[unused138]": 143, "[unused502]": 507, "scared": 6015, "##rity": 15780, "##key": 14839, "gunmen": 28932, "##dable": 20782, "obama": 8112, "imagined": 8078, "removing": 9268, "vomit": 23251, "scholarships": 15691, "wrong": 3308, "airline": 8582, "fully": 3929, "posterior": 15219, "pass": 3413, "1973": 3381, "kobayashi": 28930, "မ": 1437, "sato": 20251, "ventral": 23420, "ignition": 17446, "britain": 3725, "charley": 20430, "differs": 12980, "hairy": 15892, "##mi": 4328, "paddington": 26318, "##yal": 21095, "##rim": 20026, "survivors": 8643, "similarities": 12319, "naughty": 20355, "##ser": 8043, "tree": 3392, "##ctum": 27272, "##lio": 12798, "salazar": 25315, "uh": 7910, "##15": 16068, "recruited": 8733, "continent": 9983, "conserve": 27749, "##ae": 6679, "hers": 5106, "blunt": 14969, "acronym": 20137, "defines": 11859, "ministers": 7767, "alexander": 3656, "brownish": 19437, "த": 1385, "##ifying": 11787, "potential": 4022, "biography": 8308, "##iza": 21335, "malaria": 19132, "resisted": 13335, "ascribed": 28025, "900": 7706, "displacement": 13508, "ա": 1219, "delicate": 10059, "claudia": 13479, "embracing": 23581, "##ots": 12868, "theoretical": 9373, "口": 1788, "australia": 2660, "handing": 13041, "##mg": 24798, "davy": 23255, "doubted": 12979, "productions": 5453, "disciplines": 12736, "chemical": 5072, "fisheries": 13424, "games": 2399, "##alo": 23067, "advantage": 5056, "##id": 3593, "##mon": 8202, "destroyers": 13242, "baldwin": 10970, "morally": 28980, "49ers": 18156, "[unused876]": 881, "escapes": 12976, "gesellschaft": 27482, "kicking": 10209, "pursuing": 11828, "##ied": 6340, "[unused311]": 316, "theirs": 17156, "demonstrating": 14313, "predominant": 21047, "modes": 11583, "flotilla": 17150, "syllables": 20732, "confederates": 24627, "gal": 14891, "dail": 26181, "##न": 29863, "basilica": 13546, "heels": 8265, "invariably": 26597, "sins": 15516, "##zily": 28431, "slabs": 28761, "resource": 7692, "mistress": 10414, "alec": 9752, "##ト": 30240, "##tp": 25856, "choreographed": 23317, "erupted": 12591, "##ᵗ": 30041, "xii": 14371, "##ホ": 30248, "37": 4261, "magnificent": 12047, "azerbaijani": 18325, "##take": 15166, "##go": 3995, "il": 6335, "products": 3688, "deck": 5877, "continental": 6803, "palatine": 22202, "crystal": 6121, "westfield": 26584, "husky": 18758, "leaf": 7053, "emptied": 21764, "landfall": 21042, "##iki": 17471, "judy": 12120, "roller": 11220, "##ns": 3619, "mcgee": 22034, "ascot": 29036, "patel": 20455, "crimean": 20516, "\"": 1000, "tottenham": 18127, "effortlessly": 29483, "##cytes": 27321, "##athic": 20972, "##ว": 29955, "##jected": 24455, "##sett": 21678, "annals": 16945, "criticisms": 19628, "terminal": 5536, "frustrating": 25198, "complexion": 28838, "ش": 1283, "ashby": 28729, "clients": 7846, "ք": 1239, "grimm": 24287, "vega": 15942, "##″": 30067, "##lic": 10415, "##cci": 14693, "ramon": 12716, "exhibits": 10637, "fueled": 17999, "indictment": 24265, "hectare": 20406, "cutler": 24975, "si": 9033, "design": 2640, "##天": 30337, "##ayton": 29319, "##rize": 25709, "pbs": 13683, "liang": 16982, "susan": 6294, "ヒ": 1719, "artistic": 6018, "spielberg": 28740, "mortals": 23844, "botswana": 19414, "##∆": 30122, "doorstep": 26581, "everett": 15160, "bp": 17531, "weaken": 23021, "interactions": 10266, "urge": 9075, "nm": 13221, "shades": 13178, "healthcare": 9871, "transgender": 16824, "heidi": 21372, "clashed": 22600, "1987": 3055, "hallways": 28274, "##ᄎ": 30001, "islands": 3470, "involved": 2920, "[unused866]": 871, "with": 2007, "##ttered": 14795, "byrd": 17845, "acc": 16222, "hatred": 11150, "searched": 9022, "becca": 22140, "finally": 2633, "prime": 3539, "licking": 17033, "equal": 5020, "##eo": 8780, "ing": 13749, "1936": 4266, "森": 1882, "usage": 8192, "usher": 20774, "##ele": 12260, "fear": 3571, "injuries": 6441, "handed": 4375, "examiner": 19684, "lunar": 11926, "maturity": 16736, "earning": 7414, "otago": 21831, "medallion": 22541, "##opers": 27342, "##_": 29638, "famous": 3297, "mm": 3461, "flirting": 20661, "lea": 12203, "diagnostic": 16474, "defeated": 3249, "assessment": 7667, "lawrence": 5623, "reinforce": 19444, "maris": 23787, "glorious": 14013, "holy": 4151, "##ays": 22916, "##ء": 29815, "##thic": 23048, "teaming": 27025, "##outs": 12166, "probing": 28664, "stephenson": 19789, "auckland": 8666, "tone": 4309, "florence": 7701, "distinguishing": 20852, "turbine": 14027, "owens": 14824, "versions": 4617, "sentai": 28650, "prasad": 17476, "arching": 27335, "590": 25186, "accordion": 19060, "devote": 23313, "##ष": 29873, "mausoleum": 19049, "dee": 9266, "tanaka": 21829, "##haling": 23896, "wealthiest": 27809, "stack": 9991, "erased": 23516, "##བ": 29967, "textile": 12437, "##nton": 15104, "yarn": 27158, "rhapsody": 29395, "mexican": 4916, "taller": 12283, "[unused690]": 695, "ongoing": 7552, "marin": 16400, "43rd": 25747, "antibiotics": 24479, "blasts": 25829, "henrietta": 20775, "gasoline": 13753, "carbonate": 26427, "[unused987]": 992, "princeton": 9173, "cubs": 12469, "[unused908]": 913, "corinne": 26879, "[unused541]": 546, "hiking": 13039, "insanity": 19272, "haley": 16624, "admiralty": 14179, "depiction": 15921, "moods": 27824, "##brand": 23544, "customer": 8013, "assassination": 10102, "##vi": 5737, "##istles": 28738, "tag": 6415, "barefoot": 22985, "flew": 5520, "necks": 26082, "tunnels": 10633, "prodigy": 28334, "gel": 21500, "murders": 9916, "syndicate": 16229, "redding": 26687, "turtle": 13170, "1915": 4936, "totally": 6135, "hasty": 27151, "careless": 23358, "apprehension": 25809, "context": 6123, "მ": 1448, "prussian": 10734, "smash": 15132, "##dorf": 11592, "[unused395]": 400, "butte": 25024, "##∪": 30132, "##京": 30281, "##ʑ": 29703, "1667": 27643, "holland": 7935, "abdominal": 21419, "correct": 6149, "igor": 14661, "shifts": 12363, "##ि": 29877, "5000": 13509, "ferrara": 28635, "orange": 4589, "disposition": 22137, "440": 17422, "qc": 25196, "someday": 13834, "tae": 22297, "atkinson": 18646, "##enity": 20693, "championships": 3219, "rink": 18416, "gundam": 26152, "##piece": 11198, "mi": 2771, "rowan": 14596, "crisp": 15594, "marty": 12578, "rifle": 5883, "kramer": 16322, "न": 1327, "chi": 9610, "corporations": 11578, "coffin": 13123, "disagreements": 23145, "papua": 13049, "arson": 24912, "moaning": 22653, "worries": 15508, "townsend": 16139, "##idium": 28742, "crossbow": 28692, "##vious": 24918, "collectively": 13643, "priorities": 18402, "##氷": 30421, "handful": 9210, "emily": 6253, "mira": 18062, "uniforms": 11408, "transforms": 21743, "60th": 20928, "##tees": 28313, "rae": 14786, "202": 16798, "cartridge": 15110, "##ո": 29779, "hen": 21863, "sigismund": 26748, "refining": 28596, "come": 2272, "imam": 17189, "emotion": 7603, "##enbach": 21409, "avoids": 26777, "jesse": 7627, "##դ": 29769, "surfer": 27747, "theorists": 28442, "##დ": 29977, "lifestyle": 9580, "410": 19151, "jamal": 24132, "statutes": 18574, "rite": 14034, "bottom": 3953, "flint": 13493, "saline": 28413, "flare": 17748, "terminated": 12527, "##ـ": 29832, "af": 21358, "arranger": 13981, "oasis": 18128, "behaved": 26979, "tyne": 17742, "##sant": 22341, "vaulted": 24616, "plantations": 14979, "snakes": 12971, "evolution": 6622, "squid": 26852, "upbeat": 27999, "strait": 11195, "havre": 28890, "empires": 23560, "expeditions": 15014, "exempt": 11819, "into": 2046, "flanks": 23547, "schooner": 21567, "historian": 5272, "wan": 14071, "reflect": 8339, "indirectly": 17351, "arguments": 9918, "rolling": 5291, "##jian": 27685, "bullet": 7960, "attributed": 7108, "barriers": 13500, "30": 2382, "##ssion": 28231, "musica": 21137, "composer": 4543, "sheriff": 6458, "gdp": 14230, "pioneering": 13280, "02": 6185, "steppe": 29096, "[unused280]": 285, "amino": 13096, "bike": 7997, "array": 9140, "lina": 27022, "こ": 1655, "cf": 12935, "marlborough": 22830, "bros": 10243, "prompt": 25732, "whom": 3183, "smelling": 19773, "##tite": 23096, "awareness": 7073, "videos": 6876, "digits": 16648, "sea": 2712, "scheme": 5679, "##vs": 15088, "प": 1328, "originates": 16896, "##↦": 30116, "innings": 7202, "badger": 24186, "##inn": 23111, "pristine": 27375, "punt": 18975, "churches": 5231, "rude": 12726, "tokyo": 5522, "skip": 13558, "##att": 19321, "loving": 8295, "presumed": 14609, "##phile": 24862, "##erina": 26052, "settling": 9853, "vivid": 14954, "ध": 1326, "torino": 24737, "##mata": 21022, "wed": 21981, "521": 26963, "lucknow": 23571, "astronauts": 25881, "efforts": 4073, "##gate": 5867, "grocery": 13025, "vr": 27830, "##brook": 9697, "##hend": 22342, "shifters": 21537, "tod": 28681, "ceo": 5766, "viktor": 13489, "##open": 26915, "##ق": 29834, "glider": 18788, "iec": 24940, "sichuan": 20980, "primaries": 27419, "##э": 29756, "##pping": 14853, "hp": 6522, "christine": 10941, "mathematicians": 29374, "る": 1687, "oxidation": 19577, "doorbell": 25422, "[unused409]": 414, "ee": 25212, "ट": 1320, "guitarist": 5990, "[unused175]": 180, "mess": 6752, "〈": 1637, "definitely": 5791, "razor": 15082, "homosexuality": 15949, "paige": 17031, "annoyed": 11654, "##ibility": 13464, "addressing": 12786, "conner": 17639, "sonata": 14681, "##前": 30302, "ogden": 23203, "centennial": 15483, "##naut": 24619, "ceremony": 5103, "kilometre": 13214, "hydra": 26018, "locality": 10246, "sudden": 5573, "##vita": 28403, "lie": 4682, "architectural": 6549, "clapped": 18310, "conventions": 12472, "creaked": 28068, "wealthy": 7272, "cody": 13326, "promotion": 4712, "occasional": 8138, "m3": 29061, "connected": 4198, "archived": 9749, "##we": 8545, "joel": 8963, "tun": 27112, "receipt": 24306, "sarajevo": 18354, "sneak": 13583, "determines": 16463, "γ": 1157, "smoothed": 17966, "gaped": 23832, "sincere": 18006, "[unused598]": 603, "##bay": 15907, "##ini": 5498, "eighty": 12021, "piercing": 14628, "mccain": 19186, "eric": 4388, "1609": 28058, "ℓ": 1577, "##oud": 19224, "panzer": 16946, "##ent": 4765, "silly": 10021, "alexandria": 10297, "mal": 15451, "##lessly": 10895, "remy": 22712, "baba": 14208, "coaches": 7850, "##ж": 29743, "##eal": 15879, "##pone": 29513, "[unused318]": 323, "[unused326]": 331, "petersen": 22615, "rosa": 9508, "warrior": 6750, "procedures": 8853, "marital": 23143, "##atz": 20501, "##成": 30380, "broke": 3631, "##ailed": 17440, "jules": 11044, "symbols": 9255, "binds": 20817, "##gga": 23033, "universite": 22176, "prairie": 10996, "token": 19204, "##ac": 6305, "apple": 6207, "##wide": 22517, "##rgeon": 28242, "professorship": 22661, "passengers": 5467, "[unused315]": 320, "teammate": 10809, "vocational": 13099, "##anne": 20147, "##ه": 14157, "crossroads": 16760, "##lyn": 9644, "clown": 15912, "vancouver": 6930, "leah": 14188, "blackish": 22032, "tampa": 9925, "[unused552]": 557, "diffusion": 19241, "##森": 30408, "subset": 16745, "kong": 4290, "##rest": 28533, "##non": 8540, "##ices": 23522, "preparing": 8225, "rematch": 18229, "eligible": 7792, "surgery": 5970, "85": 5594, "guide": 5009, "##len": 7770, "coding": 16861, "poets": 9736, "request": 5227, "dioceses": 26586, "messenger": 11981, "[unused864]": 869, "##rd": 4103, "currie": 20667, "##lik": 18393, "wounding": 27285, "sammy": 14450, "hazards": 22010, "amplifier": 22686, "##anal": 27953, "gallery": 3916, "sylvia": 13378, "turnbull": 26439, "1500": 10347, "comics": 5888, "denial": 14920, "script": 5896, "homestead": 14473, "##lty": 24228, "街": 1946, "amendment": 7450, "negotiations": 7776, "「": 1641, "javelin": 23426, "few": 2261, "nave": 12847, "##inda": 23938, "casually": 13217, "length": 3091, "pose": 13382, "fringe": 13548, "investigate": 8556, "##bel": 8671, "citing": 8951, "pounded": 13750, "revelations": 22191, "suspension": 8636, "cheap": 10036, "##mbe": 18552, "[unused685]": 690, "intervention": 8830, "oman": 16640, "damp": 10620, "##zu": 9759, "drank": 10749, "spectral": 17435, "[unused554]": 559, "fifth": 3587, "strength": 3997, "insurrection": 27860, "overwhelmed": 13394, "uncover": 26944, "span": 8487, "[unused722]": 727, "buffet": 28305, "##inatory": 28230, "tko": 26537, "frog": 10729, "##hesive": 21579, "08": 5511, "musical": 3315, "maximize": 25845, "increases": 7457, "##door": 23835, "1774": 17593, "derive": 18547, "graveyard": 16685, "[unused75]": 76, "ethical": 12962, "sikhs": 26697, "granddaughter": 12787, "pitched": 8219, "vegas": 7136, "sequences": 10071, "jenks": 15119, "##rio": 9488, "relaxing": 19613, "juventus": 22760, "erase": 22505, "anyway": 4312, "gregorian": 25847, "##venor": 26806, "rail": 4334, "##ening": 7406, "gallons": 18501, "deserted": 12768, "tyrol": 27193, "ingrid": 22093, "##torm": 20654, "paul": 2703, "⅓": 1581, "captains": 15755, "garbage": 13044, "distorted": 19112, "##powering": 23948, "##ades": 18673, "ɫ": 1120, "buckle": 22853, "castillo": 19371, "distal": 29333, "sectional": 27197, "##竹": 30459, "epidemic": 16311, "somewhat": 5399, "astros": 22058, "assists": 8456, "188": 19121, "emotionally": 14868, "bloomington": 26372, "ncaa": 5803, "##puri": 24661, "inferior": 14092, "##rat": 8609, "##ras": 8180, "principality": 18018, "muscular": 13472, "##rine": 11467, "##llah": 18599, "qualification": 8263, "##tropical": 25528, "mohawk": 22338, "aztec": 25245, "kimball": 26659, "##dget": 24291, "270": 13756, "breakout": 25129, "significant": 3278, "tugs": 29306, "brown": 2829, "officer": 2961, "divides": 20487, "planck": 26486, "applause": 20737, "##um": 2819, "##tem": 18532, "death": 2331, "[unused670]": 675, "jax": 13118, "beatrice": 14807, "retro": 22307, "marred": 24563, "fang": 15197, "##rip": 29443, "[unused988]": 993, "##raf": 27528, "ozone": 26443, "##schaft": 26527, "mcintyre": 24564, "ignore": 8568, "[unused548]": 553, "[unused105]": 110, "##nified": 25201, "shaded": 25273, "lurking": 24261, "##lok": 29027, "havoc": 22156, "##olis": 20872, "consistency": 18700, "##ェ": 30223, "##ᵢ": 19109, "##sma": 26212, "unitary": 22127, "voltage": 10004, "pussy": 22418, "rattled": 19252, "melodies": 16106, "barrel": 8460, "##phila": 26083, "##ant": 4630, "[unused922]": 927, "andreas": 12460, "##lke": 28143, "##placed": 22829, "tables": 7251, "avenues": 20859, "additional": 3176, "semiconductor": 20681, "concluded": 5531, "真": 1921, "##graphs": 27341, "falls": 4212, "k": 1047, "giacomo": 22873, "##tsk": 29064, "##eme": 21382, "##ত": 29898, "##lov": 14301, "ui": 21318, "diner": 15736, "ranges": 8483, "alarm": 8598, "##act": 18908, "betsy": 22396, "consonants": 19694, "locked": 5299, "##osed": 24768, "abundant": 12990, "motivation": 14354, "bellevue": 26756, "1755": 21417, "[unused231]": 236, "1938": 4260, "seventeenth": 15425, "##ki": 3211, "₃": 1550, "biker": 28988, "ru": 21766, "envisioned": 18035, "##pm": 9737, "gathers": 29438, "[unused902]": 907, "##ott": 14517, "staunch": 26355, "generous": 12382, "[unused325]": 330, "##onic": 12356, "##chan": 14856, "weeping": 19750, "ladder": 10535, "liechtenstein": 26500, "grouped": 15131, "##щ": 29754, "hillside": 18573, "phone": 3042, "toilets": 21674, "port": 3417, "॥": 1345, "op": 6728, "##上": 30268, "##iaceae": 23357, "armory": 24139, "pinched": 18521, "spot": 3962, "fury": 8111, "nicolas": 9473, "##rave": 22401, "##ich": 7033, "chance": 3382, "alexia": 21683, "##nio": 27678, "##ouring": 27897, "impressions": 19221, "reprise": 16851, "##mies": 28397, "##base": 15058, "omnibus": 27284, "[unused182]": 187, "magazines": 7298, "uncommon": 13191, "engined": 21235, "sunken": 23470, "futsal": 21921, "dvd": 4966, "obscure": 14485, "[unused752]": 757, "##fan": 15143, "[unused883]": 888, "royalties": 25335, "crowned": 10249, "##智": 30395, "alvin": 17348, "establishments": 17228, "garments": 21902, "1610": 25800, "posthumously": 12770, "seeds": 8079, "##uration": 18924, "[unused645]": 650, "vaughn": 18220, "theo": 14833, "cumulative": 23260, "cycling": 9670, "##江": 30423, "rediscovered": 26733, "##rica": 14735, "groaned": 9655, "overland": 21400, "parasitic": 26045, "obedience": 22645, "stink": 27136, "unicode": 27260, "##rard": 25561, "lagoon": 15825, "payment": 7909, "##dlow": 27002, "unofficially": 29322, "ignorant": 21591, "mandir": 22700, "standardized": 16367, "ramps": 24943, "flores": 17343, "uncanny": 28953, "love": 2293, "couch": 6411, "ך": 1251, "##ive": 3512, "7th": 5504, "preparation": 7547, "清": 1903, "##giving": 23795, "##dis": 10521, "shipment": 22613, "cards": 5329, "priced": 21125, "mariana": 22097, "likelihood": 16593, "seriousness": 27994, "strongest": 10473, "stop": 2644, "##ћ": 29764, "stir": 16130, "1911": 5184, "months": 2706, "##ro": 3217, "bang": 9748, "tyrant": 26508, "typhoon": 15393, "congressional": 7740, "##rri": 18752, "152": 15017, "[unused828]": 833, "hourly": 21462, "¨": 1074, "provoke": 27895, "mayors": 21941, "tessa": 13167, "sufi": 21845, "##±": 29657, "toad": 21344, "collateral": 24172, "meng": 27955, "sharon": 10666, "##cade": 21869, "masonic": 21152, "skeletons": 24365, "[unused165]": 170, "philosophical": 9569, "percent": 3867, "##uka": 15750, "purchased": 4156, "wider": 7289, "orphaned": 27093, "63": 6191, "sanders": 12055, "##charged": 22620, "peugeot": 26385, "resembles": 12950, "##仮": 30287, "outta": 24955, "smirked": 18775, "helmet": 10412, "dumped": 14019, "accept": 5138, "magnus": 10045, "1729": 28449, "helicopters": 12400, "bases": 7888, "540": 20263, "explosive": 11355, "41": 4601, "spans": 14798, "##cp": 21906, "overtime": 12253, "451": 28161, "crawled": 12425, "cobalt": 25627, "disturb": 22995, "atomic": 9593, "holster": 29447, "turner": 6769, "m2": 25525, "nicky": 20158, "advocacy": 12288, "nearing": 23454, "##rdan": 26992, "denis": 11064, "##cles": 18954, "deposed": 18298, "stinging": 22748, "jimi": 27624, "##¼": 29664, "bulgaria": 8063, "friendship": 6860, "martina": 23508, "markings": 13967, "##ener": 24454, "##bbies": 27982, "tuna": 24799, "800": 5385, "infinitely": 25773, "pill": 17357, "##linson": 25051, "joking": 16644, "timmy": 27217, "##本": 30402, "via": 3081, "bout": 10094, "mom": 3566, "stricken": 16654, "##wy": 18418, "##llum": 20845, "moved": 2333, "widely": 4235, "cloth": 8416, "kw": 6448, "roses": 10529, "munro": 20923, "hotspur": 25985, "knighted": 19572, "signature": 8085, "##ales": 23266, "##unt": 16671, "shadowy": 22801, "bay": 3016, "##bai": 26068, "screw": 11224, "group": 2177, "theologian": 17200, "polly": 17543, "[unused201]": 206, "accreditation": 14893, "##acker": 25418, "##lellan": 25839, "kildare": 24275, "peptide": 25117, "og": 13958, "gretchen": 21625, "baja": 19497, "portrays": 17509, "billed": 14843, "pam": 14089, "peterborough": 17587, "harassment": 16011, "##ages": 13923, "##typical": 27086, "parkinson": 20310, "lash": 25210, "casualties": 8664, "genera": 11416, "##ens": 6132, "formulas": 25814, "neighboring": 8581, "fc": 4429, "es": 9686, "##ʐ": 29702, "rockwell": 25235, "[unused304]": 309, "##osh": 17369, "##nation": 9323, "##lt": 7096, "simultaneously": 7453, "males": 3767, "mimi": 20705, "owe": 12533, "##zy": 9096, "mathematics": 5597, "achievement": 6344, "supporters": 6793, "##bill": 24457, "vidal": 29259, "cap": 6178, "glitter": 27566, "seamus": 24993, "budgets": 26178, "drawer": 13065, "##lver": 26229, "gems": 20296, "conscious": 9715, "##ς": 19579, "1811": 13086, "naval": 3987, "##entes": 26933, "##tur": 20689, "##cat": 11266, "fundraiser": 28536, "inadvertently": 21089, "rainy": 16373, "stretches": 14082, "robert": 2728, "##vera": 26061, "（": 1987, "adjustment": 19037, "distinctive": 8200, "lipstick": 22359, "##র": 29908, "##chner": 28254, "notions": 21951, "fancy": 11281, "textures": 29343, "gideon": 12137, "emerged": 6003, "caught": 3236, "ს": 1452, "##dberg": 25190, "poetic": 13805, "homework": 19453, "##—": 30052, "approximation": 20167, "captive": 12481, "##ulo": 18845, "either": 2593, "obtained": 4663, "legged": 15817, "##lance": 23078, "producer": 3135, "®": 1079, "satirical": 17251, "opposition": 4559, "##ʋ": 29699, "##nesian": 20281, "assembled": 9240, "##graphic": 14773, "276": 25113, "##iana": 11410, "momentum": 11071, "ornamental": 18200, "foreign": 3097, "##rch": 11140, "powers": 4204, "cross": 2892, "##山": 30357, "psalms": 26130, "52": 4720, "dorsal": 12759, "1749": 24704, "buried": 3950, "diplomats": 23473, "cords": 24551, "lesbian": 11690, "fee": 7408, "jamie": 6175, "chips": 11772, "resided": 12427, "educating": 25088, "padre": 28612, "livingston": 14109, "##hoe": 14490, "1814": 10977, "##35": 19481, "scarred": 21985, "foraging": 26912, "nuevo": 22250, "doomed": 20076, "classification": 5579, "##drich": 23335, "##vius": 26055, "train": 3345, "##ₕ": 30093, "mohammed": 12619, "##sl": 14540, "commitments": 17786, "⇄": 1589, "##b": 2497, "mallory": 20468, "ろ": 1689, "enough": 2438, "absolutely": 7078, "##kir": 23630, "bt": 18411, "adobe": 18106, "houses": 3506, "rhea": 24775, "nipples": 28124, "mazda": 25286, "##mouth": 14359, "question": 3160, "dalton": 12413, "harding": 15456, "triple": 6420, "hinges": 25484, "[unused547]": 552, "arithmetic": 20204, "variables": 10857, "afar": 28978, "##代": 30286, "##ں": 29843, "huddled": 20258, "##week": 28075, "##地": 30328, "##hra": 13492, "raw": 6315, "multimedia": 14959, "##rlin": 19403, "##isha": 24032, "spun": 7455, "##hly": 27732, "caleb": 10185, "economy": 4610, "protest": 6186, "1917": 4585, "animal": 4111, "middle": 2690, "hacked": 28719, "lu": 11320, "troubled": 11587, "elders": 13376, "##nging": 22373, "##ম": 29906, "overlook": 27590, "##rb": 15185, "battista": 28422, "[unused880]": 885, "daze": 28918, "##sen": 5054, "artisans": 26818, "arctic": 10162, "sweaty": 19889, "liberal": 4314, "##sf": 22747, "waits": 18074, "##gger": 13327, "peas": 26072, "kiara": 28870, "theodore": 10117, "consecrated": 12299, "##cker": 9102, "highland": 10983, "milne": 24377, "variety": 3528, "narrows": 25142, "##stown": 13731, "##tors": 6591, "##eza": 28640, "sadie": 21330, "##cks": 10603, "shi": 11895, "coincided": 18616, "stockholm": 8947, "gleaming": 18242, "##bley": 29538, "couldn": 2481, "et": 3802, "deer": 8448, "tim": 5199, "lord": 2935, "excellence": 8012, "##tated": 16238, "affirmative": 27352, "constructing": 15696, "rankin": 25772, "karin": 24537, "am": 2572, "##glers": 25555, "nominations": 9930, "sox": 9175, "coveted": 28821, "##lwyn": 29287, "##街": 30472, "dominate": 16083, "junk": 18015, "king": 2332, "typed": 21189, "##ffen": 18032, "brest": 22451, "crook": 19302, "hush": 20261, "hara": 18820, "battling": 17773, "possibilities": 12020, "##石": 30448, "winters": 12214, "equals": 19635, "remember": 3342, "##els": 9050, "##neo": 23585, "##ɣ": 29683, "mcdowell": 25005, "trading": 6202, "aristocracy": 22706, "華": 1942, "aquarium": 18257, "devi": 14386, "1769": 20663, "elector": 20374, "databases": 17881, "hesse": 16399, "crushed": 10560, "nigeria": 7387, "prosperous": 18241, "[unused530]": 535, "administrator": 8911, "tapestry": 25213, "mellon": 22181, "##rocity": 21735, "wires": 14666, "bsc": 23533, "n": 1050, "##に": 30194, "encouragement": 15846, "airlines": 7608, "cruelty": 18186, "hopping": 26397, "antennae": 28624, "amendments": 16051, "geometric": 14965, "belt": 5583, "poet": 4802, "forces": 2749, "##|": 29641, "[unused464]": 469, "aleksandr": 24020, "bladder": 24176, "comes": 3310, "wicked": 10433, "quite": 3243, "##nu": 11231, "til": 18681, "touchdowns": 10183, "##ford": 3877, "##adia": 25205, "⊂": 1610, "##འ": 29969, "##ᶜ": 30046, "ტ": 1453, "swallows": 26436, "roam": 25728, "##sation": 26652, "scarf": 18982, "refurbishment": 24478, "1991": 2889, "productive": 13318, "warn": 11582, "##atic": 12070, "##ime": 14428, "history": 2381, "##den": 4181, "merlin": 15993, "[unused559]": 564, "brighton": 10309, "amc": 21962, "successfully": 5147, "##wes": 18192, "humor": 8562, "abrams": 23063, "##vani": 27760, "plastic": 6081, "kc": 21117, "maternity": 23676, "sprinter": 19938, "isabella": 10323, "ordination": 18129, "household": 4398, "##jong": 21958, "##lam": 10278, "franco": 9341, "cheaper": 16269, "stomped": 21918, "hoax": 28520, "aground": 29406, "trenches": 19874, "blinds": 28279, "reggae": 15662, "mustered": 21900, "##ter": 3334, "iona": 22347, "implementations": 24977, "gnome": 25781, "tar": 16985, "catcher": 13795, "convict": 20462, "##enary": 24553, "obtain": 6855, "dub": 12931, "[unused20]": 21, "##bio": 26282, "traits": 12955, "[unused274]": 279, "ð": 1098, "rios": 25836, "##be": 4783, "display": 4653, "pisa": 25472, "palms": 9486, "##are": 12069, "drummond": 19266, "anglican": 9437, "amnesia": 29222, "bestowed": 17398, "gujarati": 26428, "functioning": 12285, "preparatory": 13485, "centimeters": 18119, "aroused": 18391, "pedersen": 27409, "##pire": 20781, "accepted": 3970, "oxygen": 7722, "mcgregor": 23023, "manners": 14632, "abbess": 28010, "tools": 5906, "bought": 4149, "anders": 15387, "transmitter": 11659, "1976": 3299, "sts": 8541, "processes": 6194, "[unused448]": 453, "nationals": 10342, "till": 6229, "theater": 4258, "sv": 17917, "##ope": 17635, "stripped": 10040, "janice": 20029, "##ava": 12462, "democracy": 7072, "behavioral": 14260, "##nity": 22758, "intervening": 26623, "##hara": 11077, "harrison": 6676, "oro": 20298, "intent": 7848, "##cott": 13124, "finch": 16133, "fiery": 15443, "precinct": 18761, "1672": 27253, "##sho": 22231, "stand": 3233, "duffy": 17971, "contemporaries": 16682, "posters": 14921, "hardcover": 20990, "tradition": 4535, "martyrs": 18945, "escorts": 24877, "obliged": 14723, "adams": 5922, "piles": 18526, "knights": 7307, "zhou": 14367, "##tious": 20771, "##sible": 19307, "blackberry": 25935, "[unused916]": 921, "sneaking": 20727, "##rom": 21716, "identification": 8720, "literary": 4706, "ska": 24053, "melissa": 9606, "mask": 7308, "asked": 2356, "##lling": 13112, "drunk": 7144, "shuddering": 25735, "agricultural": 4910, "##athy": 17308, "stuffed": 11812, "managing": 6605, "palma": 23985, "proto": 15053, "canals": 17263, "chairperson": 19072, "taboo": 27505, "astonishing": 26137, "##burgh": 15496, "beaux": 20290, "##mart": 22345, "twisted": 6389, "doctoral": 11316, "bartholomew": 19866, "##ག": 29962, "raining": 24057, "debuts": 26740, "stepmother": 26959, "‘": 1520, "##rled": 27501, "edinburgh": 5928, "sorcerer": 23324, "##ল": 29909, "occasionally": 5681, "erebidae": 25875, "based": 2241, "offensive": 5805, "divisions": 5908, "woods": 5249, "₩": 1573, "nguyen": 16577, "apps": 18726, "backstroke": 28373, "##oka": 12352, "pitcher": 8070, "dahl": 27934, "questions": 3980, "scares": 29421, "starbucks": 29500, "flap": 20916, "##bes": 12681, "produces": 7137, "lengths": 10742, "##cape": 19464, "quartermaster": 24688, "footballer": 4362, "britannia": 24677, "sterling": 10933, "bombings": 20109, "patterned": 25336, "orbiting": 26472, "blankly": 26344, "alumnus": 19678, "##atter": 20097, "##shida": 25541, "##10": 10790, "prohibits": 25822, "##fr": 19699, "reformer": 24767, "##weiler": 22384, "ga": 11721, "##ments": 8163, "ア": 1693, "rejoin": 25261, "##don": 5280, "tenderly": 26596, "cameroon": 13841, "##rr": 12171, "[unused973]": 978, "disagreed": 18335, "dominates": 29532, "guam": 16162, "oclc": 12258, "prepares": 20776, "stairway": 21952, "reactive": 22643, "kato": 27496, "ब": 1329, "[unused62]": 63, "compiler": 21624, "smooth": 5744, "corvette": 22687, "##lom": 21297, "rhythm": 6348, "bb": 22861, "dedicated": 4056, "##葉": 30469, "enables": 12939, "northampton": 15944, "gaza": 14474, "cancellation": 16990, "delaware": 8452, "amelie": 25285, "semifinal": 16797, "guru": 11972, "beard": 10154, "commencing": 25819, "rally": 8320, "gifted": 12785, "kristina": 28802, "attempted": 4692, "yeast": 21957, "##nham": 20465, "acacia": 24766, "pathogen": 26835, "forming": 5716, "table": 2795, "correlation": 16902, "dept": 29466, "cdc": 26629, "knicks": 27817, "ucla": 12389, "nets": 16996, "frozen": 7708, "##尚": 30356, "industrialist": 21691, "liberia": 18039, "pleistocene": 25080, "inception": 12149, "##ic": 2594, "clandestine": 24450, "[unused582]": 587, "pain": 3255, "delilah": 23006, "wetland": 22217, "spurred": 22464, "network": 2897, "professionally": 12145, "criminals": 12290, "cbn": 21824, "enjoyment": 20195, "danes": 27476, "benny": 11945, "[unused123]": 128, "okay": 3100, "eliminating": 15349, "179": 20311, "glistening": 25203, "links": 6971, "d": 1040, "1893": 6489, "wedding": 5030, "preaching": 17979, "##osing": 18606, "coward": 16592, "random": 6721, "watson": 7908, "landscapes": 12793, "ے": 1310, "##nzo": 25650, "[unused860]": 865, "##tner": 18885, "laden": 14887, "fitzgerald": 11864, "##yne": 9654, "##wald": 11191, "options": 7047, "chopped": 24881, "navigable": 28538, "tobias": 16858, "##elial": 24587, "##iam": 25107, "traded": 7007, "taps": 25316, "hummed": 26747, "ku": 13970, "##iot": 25185, "tariffs": 26269, "combatants": 26622, "volleyball": 7454, "spread": 3659, "[unused23]": 24, "twain": 24421, "##ড": 29896, "douglass": 27485, "benign": 28378, "##xing": 19612, "rounds": 6241, "excavations": 14018, "megan": 12756, "sometime": 8811, "thornton": 14630, "sworn": 10741, "functionality": 15380, "begin": 4088, "##uz": 17040, "##42": 20958, "holly": 9079, "##my": 8029, "thursday": 9432, "clone": 17598, "kiev": 12100, "##unced": 22392, "sold": 2853, "horseshoe": 23449, "finances": 16156, "endure": 18094, "221": 19594, "israel": 3956, "russell": 5735, "regents": 22832, "士": 1807, "##put": 18780, "stance": 11032, "thud": 20605, "set": 2275, "hastily": 15789, "huskies": 29471, "##ecure": 29150, "medieval": 5781, "wrecked": 18480, "alfa": 22989, "[unused197]": 202, "rudolf": 12794, "##rion": 14772, "##mina": 22311, "##ddling": 21814, "##erus": 21608, "1998": 2687, "defend": 6985, "billings": 26124, "louisville": 11577, "bronze": 4421, "staircase": 10714, "##olved": 16116, "gen": 8991, "emmett": 25685, "pajamas": 27621, "moi": 25175, "cuba": 7394, "marianne": 19887, "guns": 4409, "u2": 23343, "carmel": 19443, "viking": 12886, "piers": 16067, "##20": 11387, "explanations": 17959, "convey": 16636, "odi": 21045, "1860": 7313, "commuter": 14334, "came": 2234, "useful": 6179, "場": 1806, "hyde": 11804, "sud": 19219, "breeze": 9478, "bohemian": 18063, "benedict": 12122, "foreigner": 29524, "blake": 6511, "[unused614]": 619, "privilege": 14293, "bao": 25945, "##anies": 28064, "shang": 29382, "tilting": 21788, "humanoid": 28051, "##hiko": 22204, "ain": 7110, "rubbing": 10137, "sul": 21396, "solitude": 22560, "manually": 21118, "37th": 23027, "##ddle": 20338, "jose": 4560, "interned": 26345, "##vili": 21661, "corps": 3650, "dazed": 19720, "bengals": 23227, "##akes": 20060, "muriel": 27616, "debates": 14379, "##nitz": 22792, "musa": 23154, "820": 26667, "video": 2678, "snout": 17291, "vanuatu": 27625, "bewildered": 24683, "caucus": 13965, "##mbit": 28878, "spheres": 19885, "dali": 29095, "distress": 12893, "##そ": 30186, "cores": 25562, "ezio": 23043, "retiring": 9150, "##zin": 17168, "modification": 14080, "##sy": 6508, "acids": 12737, "fei": 24664, "##jal": 25787, "relation": 7189, "connecting": 7176, "wheeling": 29142, "trigger": 9495, "suffix": 16809, "gemma": 19073, "councils": 10784, "troupe": 16017, "graeme": 21840, "bran": 24905, "cessna": 27664, "taunting": 29442, "ortiz": 19439, "channels": 6833, "programmers": 28547, "##rter": 19418, "enhancement": 22415, "expert": 6739, "visitors": 5731, "##hea": 20192, "watford": 21740, "totaled": 23596, "poland": 3735, "notebook": 14960, "conduct": 6204, "initiating": 26616, "##mu": 12274, "profile": 6337, "##sław": 23305, "servicemen": 26714, "depends": 9041, "##nca": 20909, "unable": 4039, "containers": 16143, "[unused150]": 155, "discovered": 3603, "revelation": 11449, "[unused533]": 538, "[unused574]": 579, "budapest": 10926, "南": 1785, "##qui": 15549, "mount": 4057, "stupidity": 28072, "checked": 7039, "carousel": 27628, "curt": 20099, "##in": 2378, "tire": 12824, "trojan": 23445, "ᄌ": 1464, "godzilla": 26631, "foundry": 19853, "actively": 8851, "disco": 12532, "frantic": 15762, "##fight": 20450, "##vers": 14028, "36": 4029, "arbor": 19679, "telegraph": 10013, "forbade": 27315, "marcus": 6647, "mara": 13955, "visibly": 19397, "ottomans": 17774, "##ssi": 18719, "patted": 11930, "translation": 5449, "##graphy": 12565, "swirled": 19171, "##α": 14608, "batavia": 28917, "nay": 29349, "emphasis": 7902, "66": 5764, "slogan": 14558, "filmmakers": 16587, "bragg": 23678, "##lein": 19856, "image": 3746, "lynne": 26938, "behind": 2369, "hesitantly": 24626, "entrepreneurship": 20213, "silesia": 21872, "donated": 6955, "##ph": 8458, "keeps": 7906, "##η": 24824, "witness": 7409, "peck": 18082, "campaigned": 16196, "cardboard": 19747, "403": 28203, "##pressive": 27484, "illustrates": 24899, "##lo": 4135, "landed": 5565, "fisted": 28273, "reactors": 22223, "lockheed": 17646, "##章": 30458, "bishop": 3387, "watershed": 12547, "##boot": 27927, "##ط": 29828, "##stead": 25647, "regimes": 25228, "##₆": 30082, "draining": 19689, "##⟨": 30155, "majesty": 9995, "viewing": 10523, "grins": 20237, "་": 1424, "bodo": 28137, "##nch": 12680, "naomi": 12806, "##jima": 19417, "tentatively": 19325, "outset": 26674, "guarding": 17019, "##ல": 29928, "bands": 4996, "pointedly": 28713, "##lines": 12735, "##sil": 27572, "widowed": 22874, "##vinsky": 27704, "chin": 5413, "alf": 24493, "backbone": 21505, "magnet": 16853, "dispersal": 27602, "featuring": 3794, "lesley": 23920, "tool": 6994, "looked": 2246, "total": 2561, "impact": 4254, "axes": 19589, "sodium": 13365, "listings": 26213, "tugged": 10621, "pencil": 14745, "begged": 12999, "##pro": 21572, "##tana": 20496, "bradley": 8981, "astor": 25159, "sedimentary": 25503, "[unused371]": 376, "catholicism": 16138, "##itive": 13043, "winked": 14217, "##gley": 22971, "kincaid": 24510, "accomplishments": 17571, "compact": 9233, "operatic": 22534, "emma": 5616, "serial": 7642, "lunatic": 26594, "ymca": 26866, "bi": 12170, "[unused251]": 256, "fanny": 17813, "stands": 4832, "adrian": 7918, "handel": 21465, "locks": 11223, "##ᴵ": 30029, "##rada": 28510, "cavern": 16679, "que": 10861, "monsieur": 21380, "##use": 8557, "hit": 2718, "auditor": 20964, "chateau": 11874, "##head": 4974, "anything": 2505, "ego": 13059, "continually": 14678, "´": 1084, "niece": 12286, "chambers": 8477, "##uid": 21272, "weakly": 17541, "##morphism": 19539, "neck": 3300, "stayed": 4370, "pennant": 22690, "constantinople": 11776, "##itte": 27100, "contributions": 5857, "jet": 6892, "##cta": 25572, "bei": 21388, "tunisian": 22946, "##yte": 17250, "##tries": 21011, "soap": 7815, "lilly": 14765, "##ians": 7066, "frowned": 7335, "alice": 5650, "##book": 8654, "39th": 22702, "costs": 5366, "spinning": 9419, "alley": 8975, "dispersed": 15484, "abraham": 8181, "grave": 6542, "hague": 14575, "cb": 17324, "##vance": 21789, "playfully": 22608, "##train": 23654, "shooter": 13108, "##〈": 30163, "historical": 3439, "wasn": 2347, "pantheon": 24152, "wwe": 11700, "##lden": 28476, "war": 2162, "arrow": 8612, "impromptu": 29213, "athenian": 26956, "arun": 28217, "passion": 6896, "angel": 4850, "thorne": 14296, "contrasting": 22133, "residency": 14079, "youtube": 7858, "##rini": 22612, "shoe": 10818, "characterized": 7356, "skeptical": 18386, "flashback": 21907, "##dge": 11818, "##bc": 9818, "##ო": 29986, "interaction": 8290, "tearing": 13311, "essential": 6827, "##bone": 14417, "blanco": 20036, "##du": 8566, "updates": 14409, "isles": 14195, "futile": 24495, "labelled": 18251, "##lda": 15150, "answered": 4660, "jesuits": 20297, "197": 19975, "manuel": 7762, "ankles": 15392, "##vite": 25217, "skier": 21294, "sheen": 20682, "river": 2314, "reliable": 10539, "##ք": 29786, "porto": 13809, "lt": 8318, "grants": 8624, "iraq": 5712, "##名": 30321, "##ק": 29810, "mother": 2388, "cardiovascular": 22935, "elected": 2700, "accountable": 26771, "phelps": 20475, "[unused654]": 659, "plainly": 24250, "ventures": 13252, "birds": 5055, "vulcan": 25993, "discourage": 28085, "gorman": 25693, "##ropriation": 26121, "bs": 18667, "archipelago": 13888, "shannon": 10881, "footballers": 27784, "mig": 19117, "lend": 18496, "hissed": 11402, "protege": 28567, "##arina": 27943, "[unused309]": 314, "broken": 3714, "##ovo": 16059, "drummer": 7101, "jennifer": 7673, "##ote": 12184, "ₙ": 1568, "yamaha": 24031, "anomaly": 28685, "namesake": 17283, "cadets": 15724, "hermit": 24308, "gardening": 21529, "boris": 11235, "bordeaux": 16384, "tier": 7563, "##ium": 5007, "##us": 2271, "anchors": 24674, "furnishings": 23127, "[unused233]": 238, "adventist": 25696, "°f": 8157, "realms": 18814, "[unused113]": 118, "channel": 3149, "turkmenistan": 25432, "##gong": 17036, "dustin": 24337, "justices": 19867, "brittany": 12686, "beginnings": 16508, "গ": 1355, "convince": 8054, "colourful": 26102, "squat": 26783, "gruff": 27038, "end": 2203, "ob": 27885, "patriotic": 14314, "upside": 14961, "##iba": 18410, "punta": 27377, "##ates": 8520, "sort": 4066, "coulter": 28293, "bias": 13827, "saxony": 13019, "angry": 4854, "honolulu": 16598, "entity": 9178, "technique": 6028, "mendes": 27916, "##asi": 21369, "##ր": 29784, "##kh": 10023, "##ᅡ": 30006, "##anial": 27532, "[unused913]": 918, "homecoming": 20772, "incentive": 20438, "elite": 7069, "mystic": 17477, "greet": 17021, "##ols": 27896, "racers": 25791, "aisles": 25442, "marvelous": 28851, "##break": 23890, "sustaining": 22663, "##գ": 29768, "bankrupt": 17482, "edges": 7926, "reserve": 3914, "arenas": 26434, "mosquito": 22529, "##ering": 7999, "seventy": 10920, "grams": 20372, "[unused83]": 84, "[unused24]": 25, "##national": 25434, "cannon": 8854, "∆": 1594, "ix": 11814, "selection": 4989, "marvel": 8348, "##llus": 20159, "bell": 4330, "reset": 25141, "##kaya": 20718, "shape": 4338, "1834": 10700, "howled": 27489, "swelling": 18348, "laborers": 23428, "upland": 25770, "faa": 17032, "##meter": 22828, "is": 2003, "caliphate": 28034, "weeks": 3134, "capita": 8353, "applications": 5097, "pneumonia": 18583, "69": 6353, "##tania": 21013, "1800": 9807, "rounding": 26939, "announce": 14970, "abe": 14863, "patron": 9161, "afro": 17694, "quota": 20563, "##cture": 14890, "beverley": 29057, "coloured": 11401, "backdrop": 18876, "toll": 9565, "hopeless": 20625, "framework": 7705, "263": 25246, "##gative": 26792, "##bolt": 22803, "disregard": 27770, "1724": 26423, "rehearsal": 17887, "emphasizing": 22671, "layer": 6741, "##،": 29814, "moves": 5829, "long": 2146, "emergencies": 26360, "shielding": 25553, "charismatic": 23916, "compatible": 11892, "lets": 11082, "mural": 15533, "accelerating": 29494, "##waite": 29601, "unrest": 16591, "retains": 14567, "branch": 3589, "nationalist": 8986, "irritation": 17373, "bastion": 26829, "excuses": 21917, "pueblo": 18273, "oven": 17428, "municipal": 4546, "##ota": 17287, "-": 1011, "##ulous": 16203, "[unused417]": 422, "peers": 12746, "graders": 23256, "pierce": 9267, "##dan": 7847, "##tized": 23355, "from": 2013, "mace": 19382, "reissue": 17173, "150": 5018, "ᆷ": 1487, "bleeding": 9524, "magistrate": 14351, "fabric": 8313, "sketch": 11080, "equality": 9945, "cognition": 26497, "band": 2316, "cn": 27166, "warehouses": 23319, "christoph": 21428, "uta": 28981, "out": 2041, "bedfordshire": 28430, "hiss": 19074, "##ш": 29753, "##meyer": 24344, "##laya": 22923, "##rogen": 22991, "going": 2183, "beatles": 11555, "luggage": 17434, "cock": 10338, "##chen": 8661, "locate": 12453, "51st": 26017, "1747": 24522, "##nated": 23854, "dexter": 14375, "##fighting": 22158, "shattered": 10909, "thyroid": 29610, "##icon": 28524, "imagine": 5674, "celtics": 23279, "[unused218]": 223, "[unused719]": 724, "numerous": 3365, "tumbling": 21552, "##ほ": 30202, "##rata": 14660, "prosecutors": 19608, "scenarios": 16820, "utilizes": 21852, "1937": 4347, "adept": 26398, "cleavage": 28691, "cicero": 23080, "properly": 7919, "bentley": 15988, "lok": 13660, "batch": 14108, "wooded": 17172, "predatory": 21659, "horns": 11569, "motors": 9693, "cochin": 28982, "dismantled": 17293, "stormed": 16201, "##yeh": 25673, "rose": 3123, "faerie": 27498, "##iva": 11444, "relatives": 9064, "##nn": 10695, "hiv": 9820, "lexi": 16105, "##ily": 6588, "francais": 22357, "soundtracks": 24245, "equity": 10067, "porn": 22555, "champs": 29008, "##lau": 17298, "armando": 26716, "constable": 12294, "gallant": 26984, "tutor": 14924, "institut": 17126, "cheung": 22632, "damaged": 5591, "standalone": 26609, "thanks": 4283, "accumulate": 27598, "exemplified": 28593, "replacements": 23936, "intensified": 15767, "##♥": 30152, "mentally": 10597, "royal": 2548, "adults": 6001, "##=": 29630, "saskatchewan": 10068, "##ique": 7413, "zones": 10019, "polite": 13205, "##cre": 16748, "sentiment": 15792, "hammersmith": 28420, "archival": 22796, "renaissance": 8028, "weighted": 18215, "astronomical": 13674, "[unused221]": 226, "connell": 17199, "pay": 3477, "greg": 6754, "biased": 25352, "hatch": 11300, "sr": 5034, "##mine": 11233, "breaks": 7807, "proposes": 17146, "ⱼ": 1631, "shooters": 28310, "##cion": 10446, "known": 2124, "##pts": 22798, "hahn": 24266, "dq": 25410, "galactic": 21375, "scarborough": 18603, "395": 24673, "1690": 24765, "ebony": 27680, "bordering": 18299, "pounding": 9836, "##glia": 20011, "railroad": 4296, "decomposition": 22511, "eta": 27859, "ricky": 11184, "tents": 17732, "atlantis": 16637, "waved": 7147, "fernandez": 12023, "reds": 12281, "experiments": 7885, "nadia": 14942, "##mental": 26901, "##博": 30312, "spurs": 18205, "jonah": 15617, "45th": 24634, "ץ": 1262, "forest": 3224, "intel": 13420, "tamil": 6008, "questionable": 21068, "mckenzie": 18506, "##git": 23806, "nailed": 26304, "##por": 17822, "##rup": 21531, "judgment": 8689, "increasing": 4852, "complained": 10865, "##glio": 29480, "bounced": 13605, "421": 29403, "kim": 5035, "shoved": 7468, "suited": 10897, "resident": 6319, "compulsory": 14770, "##ntal": 15758, "relative": 5816, "accepting": 10564, "マ": 1723, "taluka": 29512, "vida": 19830, "##foot": 13064, "##fin": 16294, "hunters": 9624, "occasion": 6686, "text": 3793, "##haven": 14650, "intense": 6387, "sonia": 16244, "nicknamed": 9919, "stainless": 18676, "trainee": 26758, "1732": 27582, "redeveloped": 28053, "[unused346]": 351, "others": 2500, "comic": 5021, "sensitivity": 14639, "59": 5354, "##side": 7363, "column": 5930, "defunct": 11984, "offs": 12446, "##ia": 2401, "beneath": 4218, "there": 2045, "boardwalk": 29496, "huge": 4121, "pool": 4770, "taking": 2635, "##db": 18939, "র": 1372, "[unused686]": 691, "fox": 4419, "shakes": 10854, "jasper": 14791, "coat": 5435, "screamed": 7210, "##venting": 26703, "humiliation": 21171, "##ah": 4430, "hutton": 20408, "##riam": 25557, "[unused933]": 938, "electrified": 18042, "trek": 10313, "miraculous": 26106, "##м": 29745, "particles": 9309, "##actic": 28804, "convert": 10463, "##jiang": 21786, "lexington": 14521, "refused": 4188, "fighters": 7299, "ceramics": 17314, "[unused960]": 965, "230": 11816, "##ල": 29942, "superstructure": 28391, "կ": 1227, "irritated": 15560, "[unused959]": 964, "##onale": 22823, "killers": 15978, "mater": 16289, "pseudo": 18404, "redskins": 17461, "benin": 21164, "pot": 8962, "shakespeare": 8101, "##hal": 8865, "disguised": 17330, "##yre": 16363, "chevy": 29009, "nt": 23961, "լ": 1226, "forwards": 19390, "indicate": 5769, "dvds": 22477, "##ili": 18622, "peggy": 14911, "quantity": 11712, "laughed": 4191, "magic": 3894, "kelly": 5163, "empty": 4064, "yielding": 21336, "counts": 9294, "high": 2152, "compositions": 9265, "thompson": 5953, "neo": 9253, "##ma": 2863, "##chev": 16179, "breaking": 4911, "barracks": 10492, "[unused354]": 359, "crust": 19116, "satire": 18312, "2002": 2526, "monks": 9978, "creamy": 24519, "leipzig": 11222, "quickly": 2855, "furnished": 19851, "stereotypes": 22807, "##戸": 30383, "steer": 20634, "vanished": 9955, "exploits": 20397, "missed": 4771, "bishopric": 20664, "foam": 17952, "##ographer": 26145, "murderers": 28882, "ultimately": 4821, "accolades": 27447, "lightweight": 12038, "urgent": 13661, "cities": 3655, "ingredient": 21774, "fears": 10069, "mani": 23624, "lumpur": 17761, "[unused579]": 584, "##burn": 8022, "amman": 25703, "consecration": 24730, "decca": 21079, "##／": 30518, "los": 3050, "##erik": 27350, "tu": 10722, "instant": 7107, "son": 2365, "overcame": 26463, "reluctant": 11542, "encompassing": 19129, "empathy": 26452, "smirk": 15081, "愛": 1853, "spectrum": 8674, "exports": 14338, "stopping": 7458, "disputed": 11621, "relativity": 20805, "jj": 29017, "jordanian": 26276, "porsche": 16099, "steady": 6706, "confirm": 12210, "true": 2995, "decor": 25545, "##llas": 25816, "miniseries": 13612, "##adt": 18727, "jerry": 6128, "##mani": 20799, "##quel": 22197, "sees": 5927, "ducks": 14875, "lai": 21110, "spade": 23288, "##vah": 21927, "aggressive": 9376, "plurality": 29018, "mentioning": 18625, "hiram": 27410, "maxwell": 10691, "1958": 3845, "python": 18750, ",": 1010, "##itating": 16518, "keepers": 24018, "##shin": 17426, "surprise": 4474, "giggling": 21783, "mp3": 23378, "heard": 2657, "greenwood": 16827, "caress": 21753, "indeed": 5262, "taped": 19374, "medici": 22605, "goldstein": 25507, "293": 26953, "##ignon": 24796, "co₂": 20190, "singular": 13048, "row": 5216, "##uman": 19042, "scientist": 7155, "exterior": 8829, "damian": 19507, "vast": 6565, "##shah": 25611, "struck": 4930, "pleasure": 5165, "supplementary": 26215, "coloring": 22276, "clutching": 14197, "fixture": 15083, "##ex": 10288, "##ˣ": 29718, "premium": 12882, "materials": 4475, "1886": 6929, "##orted": 15613, "begging": 12858, "##br": 19892, "tsunami": 19267, "guilt": 8056, "loyalists": 26590, "##urian": 29091, "nebraska": 8506, "##sions": 27466, "lengthy": 12401, "william": 2520, "nightingale": 21771, "stepfather": 21481, "enclosed": 10837, "warnings": 16234, "raged": 28374, "##som": 25426, "व": 1335, "[unused126]": 131, "considerations": 16852, "##bson": 27355, "strengthen": 12919, "sneakers": 28130, "squirrels": 29384, "wild": 3748, "オ": 1699, "return": 2709, "tau": 19982, "less": 2625, "bodied": 22549, "##ruff": 26919, "[unused40]": 41, "koch": 15259, "tail": 5725, "cove": 11821, "infused": 29592, "earned": 3687, "##cratic": 17510, "blaine": 20002, "orderly": 23589, "gui": 26458, "purity": 18433, "briggs": 15487, "plaque": 11952, "##pse": 29251, "measurements": 11702, "inflammation": 21733, "##icus": 14239, "stacey": 19997, "hesitant": 20221, "serbs": 16757, "implemented": 7528, "hardy": 9532, "[unused818]": 823, "human": 2529, "##gui": 25698, "interval": 13483, "afternoon": 5027, "senators": 10153, "##gor": 20255, "conversely": 18868, "anterior": 15099, "saved": 5552, "##sies": 14625, "milwaukee": 9184, "daniela": 28541, "##cel": 29109, "hawkins": 13835, "builder": 12508, "fundamental": 8050, "disguise": 14249, "greensboro": 27905, "yell": 14315, "1711": 28455, "[unused511]": 516, "identity": 4767, "##sse": 11393, "sword": 4690, "phased": 21718, "cupped": 13740, "ai": 9932, "enacted": 11955, "embarked": 11299, "course": 2607, "greyhound": 21220, "signs": 5751, "##aghan": 26685, "mill": 4971, "##gel": 12439, "skinner": 17451, "releases": 7085, "jong": 18528, "distribution": 4353, "##stan": 12693, "##ooped": 20671, "##uising": 28580, "58": 5388, "##logram": 24915, "location": 3295, "takeoff": 19744, "witches": 12566, "truths": 23019, "##pel": 11880, "presiding": 18131, "ronan": 18633, "##空": 30456, "akbar": 20730, "##dhi": 19114, "##erin": 23282, "cremated": 28376, "lenin": 17497, "networking": 14048, "##enia": 19825, "[unused546]": 551, "##ん": 30217, "##bing": 10472, "absolute": 7619, "instructed": 10290, "anonymous": 10812, "esa": 28776, "garment": 19002, "[unused241]": 246, "##秀": 30454, "journalism": 8083, "jc": 29175, "##‿": 30069, "transaction": 12598, "digging": 10443, "cabinets": 20053, "apr": 19804, "both": 2119, "ᆯ": 1486, "idaho": 9795, "cadiz": 26342, "##fles": 28331, "worry": 4737, "[unused140]": 145, "ios": 16380, "unanimously": 15645, "clung": 14752, "candidate": 4018, "integrating": 22380, "囗": 1797, "abigail": 15983, "learns": 10229, "realm": 8391, "[unused965]": 970, "##ী": 29916, "edwards": 7380, "brewster": 23009, "neuroscience": 23700, "brock": 13899, "##wind": 11101, "imp": 17727, "belize": 18867, "rourke": 24400, "squares": 14320, "alteration": 26014, "1": 1015, "recreated": 29414, "trunk": 8260, "cid": 28744, "sha": 21146, "gasps": 23813, "grains": 17588, "lids": 26122, "##lessness": 24913, "##oux": 28700, "prequel": 28280, "wreath": 29586, "kilkenny": 17131, "phillips": 8109, "[unused112]": 117, "mortimer": 17416, "heating": 10808, "naturalist": 19176, "bray": 19743, "advocated": 11886, "##も": 30207, "assignment": 8775, "savanna": 22323, "ʰ": 1140, "ज": 1319, "sideways": 12579, "##ces": 9623, "incredible": 9788, "fi": 10882, "##mian": 20924, "lantern": 12856, "decreasing": 16922, "##vial": 18660, "periphery": 23275, "caretaker": 17600, "elvis": 12280, "territorial": 7894, "creative": 5541, "cared": 8725, "legislative": 4884, "bavarian": 15097, "ellie": 10707, "nasser": 26099, "players": 2867, "##run": 15532, "##tro": 13181, "##ang": 5654, "adherence": 29235, "peoples": 7243, "##ichi": 11319, "seemingly": 9428, "rook": 28620, "tides": 22487, "publicity": 11845, "mei": 19734, "##eur": 11236, "approach": 3921, "full": 2440, "jubilee": 13078, "amiga": 24126, "absorption": 16326, "##khand": 25910, "taxa": 23726, "grady": 19011, "yale": 7996, "disciple": 17849, "1804": 13140, "उ": 1313, "concern": 5142, "##ross": 25725, "#": 1001, "footprint": 24319, "penetrating": 22391, "rum": 19379, "leaving": 2975, "loch": 14941, "canadiens": 21247, "abusive": 20676, "canadians": 16485, "docks": 15093, "halo": 17201, "##fo": 14876, "mythical": 19336, "valor": 27314, "[unused396]": 401, "[unused930]": 935, "1823": 12522, "successor": 6332, "lawson": 14577, "jagger": 25827, "232": 20666, "grandmother": 7133, "720": 22857, "##ents": 11187, "earnest": 17300, "examination": 7749, "##rya": 20444, "piper": 11939, "[unused101]": 106, "##gf": 25708, "marylebone": 28537, "martini": 24480, "renamed": 4096, "aircraft": 2948, "galicia": 19017, "##€": 30102, "torn": 7950, "regions": 4655, "[unused661]": 666, "jewellery": 21545, "owing": 11427, "varieties": 9903, "shells": 10986, "goats": 17977, "consecutive": 5486, "[unused14]": 15, "skipper": 23249, "puebla": 27452, "224": 19711, "squadrons": 11435, "willow": 11940, "moon": 4231, "io": 22834, "irrelevant": 22537, "further": 2582, "divers": 18612, "pumpkin": 25730, "roadside": 25131, "cfl": 18830, "八": 1771, "##ale": 9453, "vibrations": 22755, "1580": 28278, "hooker": 17074, "©": 1075, "alderman": 18977, "roofed": 26080, "##rley": 12866, "springs": 6076, "[unused506]": 511, "##eld": 14273, "reptiles": 20978, "[unused312]": 317, "warriors": 6424, "monitor": 8080, "denomination": 18683, "[unused433]": 438, "gleamed": 25224, "caves": 10614, "bull": 7087, "##olo": 12898, "##す": 30184, "##xes": 20156, "caring": 11922, "tom": 3419, "德": 1848, "builds": 16473, "##ten": 6528, "外": 1809, "##華": 30468, "sweetly": 22557, "fairness": 26935, "brushing": 12766, "1630": 24994, "nokia": 22098, "stumbled": 9845, "pace": 6393, "wiener": 25072, "hurdle": 27630, "callum": 15229, "usl": 22448, "##ward": 7652, "##ʸ": 29710, "credit": 4923, "madden": 24890, "drilling": 15827, "[unused931]": 936, "[unused929]": 934, "milestone": 19199, "spelling": 11379, "reassured": 26350, "ut": 21183, "frantically": 16460, "permits": 14245, "hits": 4978, "distributed": 5500, "[unused108]": 113, "pleasantly": 27726, "430": 19540, "selections": 16310, "##phobia": 24920, "can": 2064, "simi": 28684, "frederic": 15296, "##hearted": 27693, "leicester": 11258, "romanized": 7651, "blanca": 27538, "pledged": 16970, "electrode": 28688, "##uve": 22909, "##ј": 29761, "actually": 2941, "ashton": 13772, "##can": 9336, "##bs": 5910, "sampson": 22041, "##enting": 26951, "physically": 8186, "[unused52]": 53, "floyd": 12305, "learn": 4553, "facebook": 9130, "emerald": 14110, "boards": 7923, "approx": 22480, "hopkins": 10239, "legislatures": 27977, "##region": 23784, "##hc": 16257, "##some": 14045, "ala": 21862, "##hausen": 13062, "##akh": 27573, "##♯": 30154, "martian": 20795, "premature": 21371, "finishes": 12321, "bodies": 4230, "herbal": 27849, "[unused294]": 299, "##merie": 28677, "trusts": 20278, "egypt": 5279, "beale": 28371, "nile": 15179, "laguna": 18169, "trapped": 7567, "may": 2089, "havana": 15278, "fukuoka": 26998, "sparkling": 16619, "dissolution": 12275, "##brate": 22008, "misconduct": 23337, "tempted": 16312, "bundles": 26825, "instructor": 9450, "obstacle": 18355, "strauss": 16423, "amherst": 19850, "songs": 2774, "adjacent": 5516, "vacated": 15348, "fares": 27092, "swaying": 21826, "##iable": 19210, "##ado": 9365, "onboard": 27120, "##fahan": 28975, "##hm": 14227, "##ℓ": 30105, "distract": 15886, "nc": 13316, "##mber": 21784, "##gli": 25394, "aiden": 15086, "packs": 15173, "reorganization": 17118, "reportedly": 7283, "irregular": 12052, "goodwin": 19928, "scout": 7464, "##lone": 27165, "tones": 12623, "austro": 16951, "##imeters": 28136, "##01": 24096, "patent": 7353, "##rgo": 18581, "haas": 22996, "exiles": 27127, "ย": 1416, "barton": 12975, "nominees": 17853, "encounters": 11340, "locations": 5269, "##ف": 29833, "##card": 11522, "gi": 21025, "##lip": 15000, "lenses": 15072, "climbed": 6589, "commitment": 8426, "az": 17207, "disc": 5860, "all": 2035, "alpha": 6541, "flavour": 28126, "1634": 28502, "proposals": 10340, "mobilization": 25580, "regina": 12512, "rca": 12639, "sobs": 21503, "mango": 24792, "qaeda": 18659, "villages": 4731, "rutgers": 18607, "murdoch": 19954, "passenger": 4628, "##makers": 12088, "commandant": 15254, "shrimp": 20130, "portraying": 17274, "##lor": 10626, "[unused48]": 49, "awards": 2982, "splashed": 22055, "##umi": 12717, "rippled": 26862, "flynn": 13259, "fifteenth": 16249, "chest": 3108, "disciplinary": 17972, "darryl": 22821, "option": 5724, "conflict": 4736, "##kar": 6673, "grab": 6723, "genocide": 14052, "argue": 7475, "strategy": 5656, "belongs": 7460, "rms": 29311, "napoleon": 8891, "roasted": 28115, "piss": 18138, "##ந": 29922, "bumped": 19030, "wreck": 12006, "wilson": 4267, "lasers": 23965, "cash": 5356, "markedly": 29295, "ulysses": 22784, "nk": 25930, "##witz": 15362, "pathways": 16910, "junction": 5098, "ם": 1254, "##nac": 18357, "retained": 6025, "##ef": 12879, "##od": 7716, "gran": 12604, "genius": 11067, "tags": 22073, "agent": 4005, "##lston": 21540, "vila": 23840, "bicycles": 21066, "macbeth": 25182, "heidelberg": 16793, "limiting": 14879, "visually": 17453, "sc": 8040, "##sb": 19022, "norwood": 22804, "##bre": 13578, "##gb": 18259, "navigation": 9163, "arrays": 27448, "##भ": 29866, "##vino": 26531, "##res": 6072, "log": 8833, "1646": 28783, "cavalry": 5945, "waitress": 13877, "solidarity": 14657, "philology": 29286, "tiger": 6816, "aldo": 28163, "figured": 6618, "prolific": 12807, "orion": 18747, "*": 1008, "criticism": 6256, "##ield": 12891, "meters": 5563, "lavender": 20920, "[unused171]": 176, "debra": 28762, "mood": 6888, "reorganisation": 24934, "bench": 6847, "##caster": 25490, "virgil": 17270, "(": 1006, "travel": 3604, "study": 2817, "##tled": 14782, "gladys": 22386, "camille": 16675, "bethel": 19375, "deeply": 6171, "deserved": 10849, "talbot": 14838, "violate": 23640, "##eni": 18595, "baptized": 19775, "worm": 15485, "photograph": 9982, "commemorating": 20646, "printers": 23557, "freestyle": 9817, "reprint": 25364, "flower": 6546, "##shi": 6182, "responds": 16412, "##28": 22407, "rune": 23276, "stared": 3592, "have": 2031, "##hof": 14586, "24th": 13386, "palace": 4186, "گ": 1305, "reliance": 17975, "eldest": 7310, "begs": 27591, "sloppy": 28810, "##lving": 25780, "lip": 5423, "shifted": 5429, "1880": 6756, "gt": 14181, "##gp": 21600, "restore": 9239, "gp": 14246, "##ants": 11390, "##lized": 28931, "sparkled": 28092, "apparent": 6835, "surged": 18852, "stade": 15649, "heiress": 20020, "alzheimer": 21901, "factions": 13815, "##per": 4842, "promoted": 3755, "epilogue": 24297, "graduates": 10845, "enlist": 28845, "[unused438]": 443, "##gat": 20697, "rica": 11509, "goalkeeper": 9653, "495": 29302, "##khar": 22510, "flexible": 12379, "curtiss": 26431, "subdivision": 12572, "291": 27173, "##nic": 8713, "dickens": 19675, "recoil": 27429, "clouds": 8044, "242": 22431, "explosions": 18217, "specification": 12827, "symphonies": 29355, "gunshot": 22077, "events": 2824, "interpreting": 25455, "folds": 15439, "broadcasts": 8960, "fates": 26417, "ب": 1271, "acquired": 3734, "♥": 1625, "stabilize": 27790, "##bles": 13510, "implicit": 24655, "##cellular": 16882, "##osphere": 25444, "##aks": 29243, "exercising": 28428, "##ajan": 28869, "direction": 3257, "##65": 26187, "alternating": 15122, "blocks": 5991, "spain": 3577, "retrieved": 5140, "become": 2468, "ice": 3256, "authentication": 27280, "polo": 11037, "##mir": 14503, "mcguire": 23872, "##gu": 12193, "plymouth": 10221, "din": 11586, "norwich": 12634, "batteries": 10274, "american": 2137, "##nal": 12032, "mph": 5601, "competition": 2971, "intensive": 11806, "colton": 21000, "pairing": 22778, "afford": 8984, "pup": 26781, "centenary": 17705, "loads": 15665, "curved": 9203, "welcoming": 18066, "lotus": 13030, "##ovsky": 21983, "detachments": 29568, "##lina": 13786, "baseline": 26163, "work": 2147, "conveyed": 21527, "rash": 23438, "robot": 8957, "##vet": 19510, "beautifully": 17950, "##unes": 26639, "##х": 29750, "animated": 6579, "##station": 20100, "referee": 5330, "hovering": 16349, "detailed": 6851, "bulgarian": 7643, "officers": 3738, "##kat": 24498, "sap": 20066, "##moor": 17622, "whitehead": 23257, "wry": 24639, "attacks": 4491, "vacation": 10885, "colchester": 20115, "marjorie": 21562, "323": 25392, "pressing": 7827, "##千": 30310, "judd": 20128, "restriction": 16840, "modernism": 27254, "01": 5890, "scrapped": 14553, "socrates": 26772, "commons": 7674, "nineteen": 11977, "sphere": 10336, "##pie": 14756, "unease": 27880, "color": 3609, "psychological": 8317, "fullback": 21803, "locally": 7246, "cheated": 22673, "##min": 10020, "towns": 4865, "consular": 27326, "discover": 7523, "famine": 15625, "darkened": 13755, "ranch": 8086, "cyber": 16941, "norma": 20692, "hangar": 18284, "[unused679]": 684, "leland": 27134, "affinity": 16730, "shifter": 18189, "##otte": 28495, "politely": 16954, "watkins": 17055, "##♦": 30153, "weathered": 28445, "bust": 13950, "intersecting": 27294, "169": 18582, "admitted": 4914, "##oms": 22225, "sacramento": 11932, "huron": 21899, "goodwill": 22875, "##atal": 27815, "borneo": 15688, "佐": 1764, "stairs": 5108, "flicker": 17909, "dyed": 28432, "##樹": 30410, "[unused198]": 203, "nakamura": 23981, "##ru": 6820, "master": 3040, "honda": 11990, "crafts": 14030, "`": 1036, "fx": 23292, "riley": 7546, "##pid": 23267, "result": 2765, "paradigm": 20680, "hectares": 9076, "vault": 11632, "1994": 2807, "reminder": 14764, "oblast": 10379, "reviewed": 8182, "##ere": 7869, "##test": 22199, "knocks": 21145, "showdown": 24419, "enigma": 26757, "dressing": 11225, "##lard": 20822, "ellington": 21630, "however": 2174, "surgeons": 16804, "shortlisted": 21353, "grunt": 20696, "white": 2317, "snow": 4586, "jakarta": 14426, "outgoing": 22011, "ב": 1242, "##erence": 20935, "revolutionaries": 24517, "penguins": 18134, "hubert": 15346, "##aj": 13006, "rollins": 23502, "cholera": 25916, "##gau": 20420, "malik": 14360, "##eux": 20860, "signaled": 22319, "innovations": 15463, "hugely": 27564, "hide": 5342, "##sai": 15816, "royalist": 20796, "regimental": 17604, "rory": 14285, "docking": 25776, "examinations": 14912, "##write": 26373, "at": 2012, "##nco": 15305, "condoms": 29094, "psychiatry": 18420, "eyre": 26975, "grover": 25242, "futuristic": 28971, "plato": 18858, "nantes": 25387, "inscribed": 14551, "foundation": 3192, "disbanded": 8532, "[unused889]": 894, "mainz": 19876, "154": 16666, "low": 2659, "1840": 8905, "apologized": 17806, "252": 22898, "privatization": 23966, "hierarchy": 12571, "##mit": 22930, "modernization": 20181, "elder": 6422, "ᅭ": 1477, "target": 4539, "springsteen": 26002, "stepping": 9085, "latter": 3732, "lars": 16357, "newcastle": 8142, "voyage": 8774, "##ardo": 24649, "rammed": 27653, "sums": 20571, "barker": 12852, "##urt": 19585, "clifford": 13894, "##cial": 13247, "##hony": 27629, "327": 28469, "supermarket": 17006, "##nami": 28987, "breasts": 12682, "##eng": 13159, "squire": 21263, "probably": 2763, "##iography": 26535, "##lated": 13776, "extent": 6698, "cantor": 26519, "##orin": 28741, "elusive": 26475, "smoke": 5610, "causal": 28102, "fairy": 8867, "subgenus": 25356, "aw": 22091, "##brates": 25258, "tomorrow": 4826, "yours": 6737, "jackets": 17764, "faint": 8143, "##а": 10260, "discontinued": 8944, "rec": 28667, "consider": 5136, "vh1": 26365, "up": 2039, "organizes": 22013, "1697": 28690, "fatalities": 20871, "##monium": 26387, "ewing": 24023, "100th": 16919, "browser": 16602, "##nets": 22781, "unstable": 14480, "invite": 13260, "##ley": 3051, "##mission": 25481, "clapton": 24705, "char": 25869, "##orestation": 25794, "fidelity": 22625, "##fk": 24316, "ん": 1691, "##ingham": 16445, "enthusiastic": 14727, "[unused416]": 421, "##レ": 30260, "petroleum": 11540, "pas": 14674, "coins": 7824, "incorrect": 16542, "cynical": 26881, "choreographer": 17334, "advancing": 10787, "thumb": 7639, "sumner": 23922, "##pired": 21649, "##bution": 29446, "1964": 3546, "daring": 15236, "justify": 16114, "surgical": 11707, "天": 1811, "kidnapping": 15071, "avoidance": 24685, "##eves": 23047, "ramp": 13276, "meal": 7954, "filipino": 10275, "grunted": 14922, "bandage": 24446, "partial": 7704, "analytics": 25095, "scarce": 18782, "##oin": 28765, "breaststroke": 28164, "spitting": 24307, "cello": 10145, "cruz": 8096, "##que": 4226, "‚": 1522, "\\": 1032, "regretted": 18991, "cannons": 17138, "atom": 13787, "lynn": 9399, "concacaf": 22169, "##ol": 4747, "102": 9402, "heartland": 27399, "babylon": 17690, "robotic": 20478, "##keeping": 18321, "triassic": 29529, "##post": 19894, "funded": 6787, "tale": 6925, "designs": 5617, "[unused855]": 860, "weaver": 14077, "fir": 21554, "shah": 7890, "brian": 4422, "oriented": 8048, "ն": 1231, "[unused941]": 946, "discoveries": 15636, "##zko": 29002, "##birds": 12887, "jeffrey": 10799, "cassette": 13903, "templar": 27850, "remains": 3464, "ч": 1202, "gates": 6733, "chester": 8812, "tarzan": 24566, "[unused600]": 605, "chair": 3242, "benton": 18685, "##ছ": 29893, "##alle": 24164, "healing": 8907, "##ক": 29889, "##uppe": 29547, "cutter": 16343, "##の": 30197, "animation": 7284, "[unused341]": 346, "shipping": 7829, "approaches": 8107, "russians": 12513, "[unused244]": 249, "rotary": 16933, "cosmos": 21182, "migrant": 20731, "[unused420]": 425, "##grass": 19673, "exported": 15612, "jeff": 5076, "testing": 5604, "gate": 4796, "polgara": 27041, "size": 2946, "cincinnati": 7797, "portion": 4664, "##lco": 22499, "dealers": 16743, "##uw": 25974, "coaching": 7748, "##icia": 24108, "compromised": 20419, "astrid": 27376, "261": 24441, "corey": 18132, "factual": 25854, "teacher": 3836, "[unused691]": 696, "amp": 23713, "cluster": 9324, "ambiguous": 20080, "arid": 17511, "filtered": 21839, "1815": 10679, "no": 2053, "coefficient": 19064, "helen": 6330, "cheekbones": 27181, "boxers": 18508, "hampshire": 7035, "everyday": 10126, "associations": 8924, "خ": 1277, "roe": 20944, "loyalty": 9721, "philippine": 7802, "grasped": 15517, "optimal": 15502, "rubber": 8903, "crime": 4126, "##rf": 12881, "ambrose": 15675, "protestants": 19592, "collisions": 28820, "##gi": 5856, "volta": 26089, "strewn": 25259, "tonight": 3892, "teachings": 12209, "politicians": 8801, "##lights": 15733, "ds": 16233, "gardiner": 21143, "226": 21035, "streetcar": 21420, "casper": 24602, "esteem": 19593, "realizes": 10919, "execute": 15389, "wolf": 4702, "##lift": 18412, "went": 2253, "defective": 28829, "ত": 1362, "securely": 28999, "caledonia": 19305, "markers": 16387, "kern": 22762, "reputed": 22353, "policies": 6043, "fork": 9292, "atkins": 21087, "འ": 1433, "southwest": 4943, "numbered": 8597, "glee": 18874, "spent": 2985, "##46": 21472, "streamed": 18498, "french": 2413, "luciano": 24512, "sam": 3520, "∅": 1593, "石": 1922, "joachim": 17286, "matteo": 24713, "discount": 19575, "portraits": 9668, "maritime": 7803, "##sonic": 18585, "bulge": 23708, "brat": 28557, "waived": 16301, "colour": 6120, "potentially": 9280, "blue": 2630, "##kali": 28613, "sera": 26358, "##oza": 25036, "238": 22030, "florida": 3516, "rank": 4635, "watched": 3427, "281": 22955, "##tering": 17989, "ae": 29347, "coded": 22402, "dinosaurs": 18148, "singapore": 5264, "1757": 22621, "tabloid": 24173, "[unused340]": 345, "##ja": 3900, "dungeon": 16633, "10": 2184, "foster": 6469, "sharks": 12004, "[unused145]": 150, "[unused958]": 963, "tak": 27006, "announces": 17472, "tread": 29449, "claudio": 19569, "##oku": 21940, "##士": 30333, "fastened": 24009, "increased": 3445, "lips": 2970, "29th": 16318, "required": 3223, "interlude": 25347, "zipper": 22082, "humorous": 14742, "和": 1796, "control": 2491, "asian": 4004, "cement": 11297, "cyprus": 9719, "##29": 24594, "campbell": 6063, "born": 2141, "cu": 12731, "equestrian": 19191, "##bino": 21891, "weakness": 11251, "fashionable": 19964, "»": 1090, "edmund": 9493, "desperate": 7143, "bonn": 19349, "[unused921]": 926, "₱": 1575, "blade": 6085, "airmen": 29437, "herr": 23506, "trent": 7990, "eireann": 29157, "222": 19015, "dodged": 28339, "relocate": 20102, "appear": 3711, "##oke": 11045, "owns": 8617, "##aan": 14634, "松": 1880, "enfield": 25821, "breathed": 8726, "dizzy": 14849, "##screen": 18182, "##ulu": 20391, "##tream": 25379, "packets": 23730, "##ui": 10179, "##pants": 27578, "consequences": 8465, "aloud": 12575, "retorted": 24056, "দ": 1364, "fluctuations": 28892, "126": 14010, "tricks": 12225, "##ovich": 12303, "##ᅮ": 30014, "auditorium": 11448, "宣": 1823, "rochelle": 25649, "doctor": 3460, "instructions": 8128, "da": 4830, "1666": 27407, "sharma": 14654, "kyoto": 15008, "skyla": 21738, "mainline": 20575, "##raya": 29539, "cox": 9574, "[unused484]": 489, "թ": 1224, "although": 2348, "barns": 25684, "eight": 2809, "1682": 29478, "##tma": 29418, "##ια": 27432, "malabar": 28785, "entropy": 23077, "dialogues": 22580, "winnipeg": 11093, "jalan": 28410, "unincorporated": 7754, "peeling": 28241, "313": 22997, "brett": 12049, "72": 5824, "##udi": 21041, "356": 27509, "pots": 18911, "justified": 15123, "sudanese": 25603, "agreement": 3820, "##zing": 6774, "cold": 3147, "ᵏ": 1501, "friction": 15012, "guo": 22720, "memorabilia": 28663, "##ahl": 28083, "bryson": 26845, "mariners": 18049, "rehab": 24497, "1949": 4085, "য": 1371, "pulses": 23894, "##cu": 10841, "##fire": 10273, "cooking": 8434, "theatrical": 8900, "lia": 22393, "explicit": 13216, "confirming": 19195, "[unused74]": 75, "payroll": 26854, "encompasses": 13974, "bows": 21207, "bouncing": 16361, "[unused324]": 329, "fender": 19028, "hendricks": 28895, "tackled": 26176, "##hai": 10932, "talks": 7566, "trades": 14279, "coast": 3023, "##nous": 18674, "馬": 1980, "thrill": 16959, "fiesta": 24050, "netball": 25034, "##fied": 10451, "unearthed": 27422, "colombian": 13598, "ratios": 21879, "subjects": 5739, "sadler": 29012, "commissioned": 4837, "alternatively": 14084, "marquis": 13410, "jia": 25871, "bathroom": 5723, "1961": 3777, "echoes": 17659, "##ᄃ": 29993, "fairly": 7199, "breakers": 24742, "cardiac": 15050, "coupe": 15130, "##wr": 13088, "canine": 28735, "dj": 6520, "##oga": 18170, "##郡": 30485, "pit": 6770, "era": 3690, "lille": 22479, "plus": 4606, "1890s": 13678, "##dley": 14232, "invited": 4778, "kb": 21677, "christensen": 24189, "juarez": 25398, "md": 9108, "pena": 19409, "groove": 14100, "##加": 30305, "mentions": 9704, "ridge": 5526, "deleted": 17159, "directing": 9855, "melvin": 20993, "##bruck": 28985, "##oya": 18232, "ড": 1360, "dances": 11278, "bruised": 18618, "hymn": 14825, "ticking": 28561, "239": 23688, "rubin": 20524, "##林": 30407, "##aar": 26526, "##illo": 10486, "barrett": 12712, "experiencing": 13417, "fulton": 17049, "275": 17528, "marissa": 22767, "load": 7170, "##moral": 22049, "iron": 3707, "337": 28489, "[unused349]": 354, "都": 1961, "ض": 1285, "byu": 23471, "enclave": 25867, "handler": 28213, "##baldi": 28807, "grafton": 28680, "##rka": 22379, "results": 3463, "johnston": 10773, "composure": 23619, "[unused576]": 581, "joyah": 27098, "worldwide": 4969, "##☆": 30148, "##tructing": 26310, "##cuting": 29163, "feared": 8615, "jungle": 8894, "hated": 6283, "tenants": 14665, "##ours": 22957, "cuisine": 12846, "elects": 27161, "huts": 23326, "##ণ": 29897, "##icides": 22698, "openings": 16556, "##eley": 22352, "##aba": 19736, "closes": 14572, "cassie": 8869, "subdistrict": 24150, "alejandro": 16810, "moans": 24675, "[unused732]": 737, "brewer": 18710, "constitutional": 6543, "communication": 4807, "rotterdam": 15632, "fare": 13258, "sir": 2909, "ס": 1258, "cruel": 10311, "instability": 18549, "carlisle": 13575, "planted": 8461, "salman": 28542, "filthy": 18294, "travers": 29053, "tracing": 16907, "amber": 8994, "vanishing": 24866, "deep": 2784, "ս": 1234, "heller": 25038, "bold": 7782, "proceed": 10838, "israelis": 28363, "chronology": 17873, "##lvis": 28530, "abilities": 7590, "crane": 11308, "##不": 30270, "whites": 12461, "babu": 20948, "paler": 24489, "contamination": 18701, "habits": 14243, "soluble": 24345, "disrupted": 20275, "sep": 19802, "badly": 6649, "undergraduate": 8324, "##弘": 30369, "relieve": 15804, "[unused159]": 164, "ں": 1306, "she": 2016, "##pace": 15327, "falkland": 25257, "º": 1089, "money": 2769, "##standing": 24911, "engine": 3194, "anhalt": 27088, "believes": 7164, "borg": 28709, "ipad": 25249, "edited": 5493, "##ச": 29919, "ying": 20879, "lunch": 6265, "kids": 4268, "sails": 17553, "##ision": 19969, "configuration": 9563, "[unused30]": 31, "arrangement": 6512, "タ": 1709, "louie": 17438, "≡": 1607, "##tao": 28555, "mika": 27857, "14th": 6400, "unsuccessful": 7736, "##ential": 24271, "bravo": 17562, "steel": 3886, "cracked": 9630, "ո": 1232, "zhu": 15503, "rouse": 27384, "ye": 6300, "nautical": 11339, "timely": 23259, "tightened": 8371, "##light": 7138, "derived": 5173, "щ": 1204, "diversity": 8906, "coke": 14492, "marilyn": 14749, "fiscal": 10807, "symphonic": 18957, "##₤": 30100, "letters": 4144, "##drome": 29171, "casualty": 19844, "winter": 3467, "effectively": 6464, "benefactor": 27398, "##mento": 23065, "competitions": 6479, "1300": 19527, "##人": 30282, "rider": 7945, "designed": 2881, "transitions": 22166, "assent": 27195, "##iary": 17302, "curiosity": 10628, "arch": 7905, "clever": 12266, "風": 1977, "outsiders": 22361, "ray": 4097, "[unused355]": 360, "##cology": 19824, "paulo": 9094, "updated": 7172, "4": 1018, "arrogance": 24416, "bathed": 24614, "dubois": 26258, "##rson": 17753, "nova": 6846, "ash": 6683, "italics": 19408, "depot": 8470, "doctorate": 8972, "duct": 23245, "entries": 10445, "##ower": 25114, "argued": 5275, "~": 1066, "##タ": 30235, "downed": 20164, "many": 2116, "##uki": 14228, "##zzo": 12036, "kidd": 25358, "denton": 23906, "後": 1846, "brightest": 26849, "pushes": 13956, "peach": 18237, "recipes": 19328, "##उ": 29849, "orr": 26914, "herbert": 7253, "mastered": 15682, "stakes": 7533, "czechoslovakia": 12833, "genuine": 10218, "##bha": 22655, "sb": 24829, "##ffy": 16329, "##aries": 12086, "dieter": 27976, "tournaments": 8504, "enterprises": 9926, "##ব": 29904, "motto": 12652, "incumbent": 7703, "wiping": 14612, "persia": 16667, "cougars": 26317, "cyrillic": 15522, "##inian": 15830, "##nding": 15683, "directed": 2856, "ami": 26445, "complement": 13711, "occupation": 6139, "1738": 28009, "hard": 2524, "cones": 23825, "trainers": 21992, "kristen": 22435, "##bery": 22509, "perth": 9300, "chests": 28717, "quoting": 27394, "[unused825]": 830, "manner": 5450, "bite": 6805, "electronic": 4816, "meyer": 11527, "##ʻi": 26444, "incorporated": 5100, "helplessly": 24942, "axle": 17290, "commemorate": 13415, "blamed": 11248, "##ately": 28239, "##{": 29640, "liberties": 18271, "restrict": 21573, "tingling": 23690, "##gum": 22850, "body": 2303, "musee": 18070, "chao": 22455, "good": 2204, "##titles": 27430, "hitler": 8042, "annexation": 18985, "readings": 15324, "mbe": 20301, "##rwood": 20941, "##phone": 9864, "dolphin": 17801, "245": 21005, "##\\": 29635, "ni": 9152, "becky": 14407, "藤": 1944, "attends": 23933, "henson": 27227, "authoritative": 23949, "##pling": 14353, "restraint": 19355, "interpret": 17841, "uefa": 6663, "liter": 23675, "regret": 9038, "denote": 19090, "##no": 3630, "generosity": 26161, "##stered": 24167, "verses": 11086, "cornice": 27848, "evaluate": 16157, "trusting": 19836, "giovanni": 9136, "##rked": 19849, "##iter": 21646, "where": 2073, "environments": 10058, "commodore": 12957, "fireplace": 13788, "descriptive": 22726, "sixty": 8442, "peshawar": 28777, "[unused865]": 870, "##inal": 13290, "hays": 29051, "sparrow": 19479, "seek": 6148, "burundi": 28836, "demonstrated": 7645, "manufacturer": 7751, "[unused342]": 347, "1622": 28133, "[unused637]": 642, "crude": 13587, "renee": 17400, "active": 3161, "literacy": 8433, "monmouth": 20433, "sable": 23492, "flavors": 26389, "ceiling": 5894, "36th": 21460, "bye": 9061, "near": 2379, "##itz": 8838, "devastation": 25594, "china": 2859, "##carriage": 21539, "1787": 16057, "ta": 11937, "types": 4127, "##ox": 11636, "toes": 10393, "1664": 28485, "##ane": 7231, "harmful": 17631, "causes": 5320, "opposed": 4941, "##rona": 26788, "[unused662]": 667, "showed": 3662, "##urity": 25137, "talk": 2831, "penang": 21812, "hutchinson": 17165, "dime": 27211, "liver": 11290, "shrieked": 22383, "problem": 3291, "painter": 5276, "driven": 5533, "crossed": 4625, "terrace": 11134, "fourth": 2959, "amateur": 5515, "culminating": 16979, "devastating": 14886, "1918": 4271, "brightly": 14224, "##boards": 15271, "marshall": 5832, "hawk": 9881, "camilla": 26902, "celebrates": 21566, "carter": 5708, "makers": 11153, "vip": 21722, "renumbered": 27855, "craven": 21232, "##zers": 16750, "aviv": 12724, "piloted": 27220, "[unused847]": 852, "drury": 25663, "president": 2343, "php": 25718, "eileen": 20495, "acquitted": 18538, "lecture": 8835, "curated": 17940, "##guchi": 16918, "defiant": 27836, "tested": 7718, "other": 2060, "utah": 6646, "shares": 6661, "##ji": 4478, "unite": 15908, "showcases": 27397, "##ة": 19433, "patio": 19404, "records": 2636, "[unused96]": 97, "progressive": 6555, "splitting": 14541, "expired": 13735, "stumble": 21811, "##ulsive": 23004, "driving": 4439, "campus": 3721, "##dded": 19520, "iphone": 18059, "ascension": 18071, "##53": 22275, "fis": 27424, "consolidation": 17439, "scissors": 25806, "poorer": 27196, "registered": 5068, "starts": 4627, "##pac": 19498, "centuries": 4693, "##発": 30440, "rome": 4199, "emergency": 5057, "diocese": 5801, "christina": 12657, "newspapers": 6399, "pixel": 22138, "##uce": 18796, "bedford": 12003, "depths": 11143, "moshe": 27123, "effect": 3466, "he": 2002, "##cap": 17695, "character": 2839, "##ᅴ": 30018, "heavily": 4600, "##み": 30204, "[unused603]": 608, "writers": 4898, "mythology": 11327, "sociological": 24846, "wheelchair": 13204, "referred": 3615, "bachelor": 5065, "heroes": 7348, "ruby": 10090, "powered": 6113, "rivals": 9169, "managerial": 24465, "##љ": 29762, "tends": 12102, "banded": 25264, "##tr": 16344, "miocene": 26926, "tempered": 22148, "seating": 10747, "##zumi": 28114, "##ice": 6610, "[unused414]": 419, "caitlin": 27555, "tolerate": 19242, "haifa": 21303, "カ": 1700, "##⇌": 30118, "##ythe": 26688, "##ck": 3600, "buckley": 17898, "[unused684]": 689, "ᵈ": 1498, "uniquely": 20640, "exceeded": 14872, "##lassified": 24938, "rates": 6165, "regent": 11315, "frenzy": 21517, "##ance": 6651, "clarkson": 18648, "held": 2218, "##matic": 12644, "explosives": 14792, "stray": 15926, "##at": 4017, "softer": 19013, "job": 3105, "regaining": 28657, "##ractive": 26884, "backing": 5150, "departing": 15971, "dax": 27116, "italians": 16773, "michelangelo": 27701, "q": 1053, "##lbert": 23373, "[unused404]": 409, "page": 3931, "1848": 7993, "rancho": 18123, "##rice": 17599, "courage": 8424, "resume": 13746, "pune": 16920, "mora": 26821, "glare": 10982, "mathews": 23287, "jai": 17410, "##phic": 17926, "opportunities": 6695, "night": 2305, "burnett": 13829, "northumberland": 16205, "gambling": 12219, "thumbs": 16784, "##mers": 16862, "nme": 23770, "##ouk": 27967, "##pati": 24952, "focused": 4208, "##lled": 11001, "[unused612]": 617, "asphalt": 16295, "superb": 21688, "fools": 18656, "##cl": 20464, "fernando": 9158, "stories": 3441, "reports": 4311, "mabel": 19486, "maldives": 25059, "unix": 19998, "1605": 28202, "##leton": 19263, "之": 1749, "dictatorship": 18944, "retrospective": 15354, "affection": 12242, "watering": 25813, "##skaya": 23070, "haunting": 20161, "##ix": 7646, "box": 3482, "##pot": 11008, "freshmen": 26612, "techniques": 5461, "costumes": 12703, "saigon": 24001, "##mad": 25666, "##coming": 18935, "ambassadors": 20986, "angeles": 3349, "luigi": 15153, "convicts": 24948, "shortly": 3859, "chattanooga": 23351, "worked": 2499, "welding": 23604, "bandwidth": 20235, "1971": 3411, "walkway": 19467, "##戦": 30382, "plural": 13994, "dietrich": 22567, "tires": 13310, "lime": 14123, "stones": 6386, "dh": 28144, "shoreline": 17721, "hope": 3246, "##eth": 11031, "glossy": 19504, "民": 1892, "would": 2052, "1970": 3359, "ring": 3614, "⺼": 1633, "ذ": 1279, "lynx": 22636, "kicked": 6476, "season": 2161, "inconsistent": 20316, "performing": 4488, "shelby": 15294, "murmur": 20227, "guillaume": 20061, "scanned": 11728, "saxons": 28267, "conservatoire": 29233, "toulon": 27160, "##ν": 16177, "##sir": 29481, "1651": 29077, "algorithms": 13792, "spawn": 25645, "monte": 10125, "cot": 26046, "[unused50]": 51, "nylon": 27201, "telecommunications": 12108, "westminster": 9434, "##ense": 16700, "##rin": 6657, "pedestrians": 24946, "1715": 22606, "psychiatric": 13691, "solution": 5576, "denny": 14465, "[unused204]": 209, "##վ": 29782, "civilized": 25825, "##wig": 16279, "##ى": 29837, "informant": 28694, "bungalow": 27563, "unpopular": 19657, "carried": 3344, "winston": 10180, "sexuality": 13798, "senior": 3026, "fat": 6638, "##posed": 19155, "legislators": 22680, "impress": 17894, "[unused102]": 107, "##opsis": 22599, "chicago": 3190, "illustrating": 28252, "deportivo": 23696, "jeep": 14007, "myra": 23020, "grain": 8982, "##star": 14117, "proteins": 8171, "##wyn": 11761, "soccer": 4715, "investigator": 14064, "calming": 23674, "##ady": 18632, "mornings": 16956, "innocent": 7036, "intimately": 29024, "##sol": 19454, "abandoned": 4704, "temples": 8436, "[unused386]": 391, "minutes": 2781, "##カ": 30226, "[unused631]": 636, "scholars": 5784, "mathematical": 8045, "litter": 19070, "##rag": 29181, "v8": 15754, "plumbing": 27902, "##ental": 21050, "heartbeat": 12251, "##bot": 18384, "emerson": 12628, "disclosed": 21362, "account": 4070, "ching": 19992, "streaked": 21276, "bouts": 23666, "kilometer": 20595, "hc": 16731, "##jali": 28948, "friar": 25287, "vt": 28879, "zero": 5717, "##aea": 21996, "##愛": 30379, "##quil": 26147, "##gio": 11411, "shelves": 15475, "binoculars": 29549, "##ausen": 25701, "exact": 6635, "arbitrary": 15275, "subscribers": 17073, "emptiness": 23397, "ding": 22033, "hugo": 9395, "schneider": 15159, "##iensis": 27806, "edged": 13011, "torres": 13101, "filed": 6406, "1731": 28446, "important": 2590, "encourages": 16171, "heir": 8215, "americana": 25988, "sober": 17358, "同": 1794, "trick": 7577, "##ei": 7416, "dolly": 19958, "understood": 5319, "fe": 10768, "basque": 13915, "ripping": 17039, "dwyer": 29394, "cbe": 15852, "burkina": 23089, "tied": 5079, "glances": 13021, "ocean": 4153, "eerie": 18823, "[unused227]": 232, "##rogate": 21799, "ク": 1702, "##志": 30377, "investigators": 14766, "solely": 9578, "tata": 23236, "336": 27954, "proceeding": 18207, "proliferation": 20250, "spiked": 25362, "yen": 18371, "orchestral": 13533, "iranian": 7726, "rubs": 28860, "##+": 29622, "tombstone": 26671, "provocative": 26422, "achievements": 10106, "vernacular": 18485, "studying": 5702, "foreword": 23059, "ferry": 7115, "[unused634]": 639, "locomotives": 7830, "mendez": 28950, "ebook": 26885, "fused": 19660, "##fast": 24333, "woodlands": 19268, "frankish": 26165, "inversion": 28527, "notion": 9366, "robertson": 9923, "fortification": 23050, "matthew": 5487, "salmon": 11840, "##yler": 20853, "kerr": 14884, "battalion": 4123, "pearson": 12874, "maneuver": 17519, "321": 24030, "conquered": 11438, "2016": 2355, "comfort": 7216, "progressed": 12506, "sneered": 28098, "aix": 28443, "benevolent": 25786, "hobart": 14005, "[unused623]": 628, "##ael": 21147, "regatta": 26848, "attendant": 16742, "##oto": 11439, "barrister": 19805, "97": 5989, "philosophy": 4695, "forge": 15681, "associated": 3378, "##nington": 23155, "differing": 16965, "guessed": 11445, "rudd": 25298, "electricity": 6451, "##宗": 30347, "archbishop": 6507, "shut": 3844, "##kers": 11451, "sniffed": 18013, "small": 2235, "て": 1665, "paralyzed": 22348, "[unused525]": 530, "ণ": 1361, "governing": 8677, "##mberg": 29084, "hunted": 14682, "concurrently": 15442, "volumes": 6702, "charlotte": 5904, "think": 2228, "henrik": 18745, "insights": 20062, "carries": 7883, "moore": 5405, "issue": 3277, "[unused250]": 255, "##eia": 27958, "insane": 9577, "linnaeus": 21610, "growl": 13349, "volunteers": 7314, "possesses": 14882, "flights": 7599, "##ᄌ": 30000, "gravel": 11127, "km": 2463, "1611": 28769, "lc": 29215, "muscle": 6740, "tons": 6197, "around": 2105, "bunch": 9129, "jung": 11810, "demonic": 23170, "bela": 20252, "##メ": 30252, "●": 1619, "demon": 5698, "ف": 1291, "also": 2036, "gunfire": 16978, "##uttered": 23128, "wight": 20945, "eventually": 2776, "brakes": 13627, "attested": 18470, "harlem": 14864, "stevens": 8799, "##s": 2015, "stalking": 20070, "vinegar": 29387, "london": 2414, "motive": 15793, "noir": 15587, "[unused103]": 108, "sandwiches": 22094, "delightful": 26380, "landowners": 20152, "competitor": 12692, "churchyard": 19812, "ks": 29535, "ingredients": 12760, "invented": 8826, "##gai": 23805, "raju": 25098, "rosalie": 29564, "[unused858]": 863, "peanut": 21443, "advised": 9449, "bafta": 22284, "289": 27054, "uganda": 10031, "##chi": 5428, "consists": 3774, "##red": 5596, "probability": 9723, "heinz": 17655, "bristol": 7067, "##ч": 29752, "picking": 8130, "non": 2512, "ill": 5665, "ي": 1300, "##rac": 22648, "font": 15489, "terminate": 20320, "madrid": 6921, "sport": 4368, "##nsed": 27730, "##ners": 16912, "observes": 24451, "##nessy": 25441, "saw": 2387, "dario": 26800, "draper": 23641, "に": 1668, "hymns": 17777, "juan": 5348, "packers": 15285, "banco": 28678, "put": 2404, "疒": 1913, "##ffa": 20961, "signals": 7755, "₁": 1548, "scowl": 19981, "sm": 15488, "violating": 20084, "acknowledges": 28049, "5th": 4833, "waving": 12015, "zhang": 9327, "mayoral": 23578, "prescott": 20719, "bills": 8236, "oval": 9242, "##olio": 29401, "ruben": 19469, "warrant": 10943, "cord": 11601, "podcast": 16110, "fired": 5045, "ᴺ": 1494, "##ბ": 29975, "##cision": 28472, "##ena": 8189, "collaborative": 12317, "supplements": 25654, "zimbabwe": 11399, "kid": 4845, "peking": 27057, "contributing": 8020, "##tow": 18790, "nor": 4496, "marino": 17185, "discovers": 9418, "[unused366]": 371, "insulin": 22597, "##zak": 20685, "warily": 23625, "##ilised": 21758, "landscape": 5957, "gauge": 7633, "##dome": 26173, "##athi": 25457, "[unused127]": 132, "hapoel": 24208, "[unused323]": 328, "##е": 15290, "##taken": 25310, "rodgers": 15652, "[unused932]": 937, "adopting": 16151, "democrat": 7672, "vacant": 10030, "guineas": 22385, "bikini": 20345, "plea": 14865, "prologue": 18877, "φ": 1176, "su": 10514, "ngos": 22165, "mining": 5471, "digest": 17886, "bones": 5944, "sunny": 11559, "bot": 28516, "countdown": 18144, "wonderful": 6919, "norm": 13373, "镇": 1966, "festival": 2782, "##gur": 27390, "£3": 28182, "pegasus": 26606, "forte": 24898, "dyer": 23494, "jock": 23407, "luckily": 15798, "##ᅩ": 30011, "northward": 17192, "##space": 23058, "penalty": 6531, "tuck": 18029, "##grad": 16307, "superfamily": 24169, "assigns": 24022, "[unused914]": 919, "once": 2320, "hamish": 28859, "usable": 24013, "##白": 30441, "turbines": 17396, "domingo": 15586, "##achal": 24409, "rivalry": 10685, "andrei": 18125, "trusted": 9480, "wake": 5256, "[unused599]": 604, "と": 1666, "sol": 14017, "##\"": 29613, "regards": 12362, "樹": 1884, "transactions": 11817, "[unused675]": 680, "loneliness": 20334, "embrace": 9979, "visuals": 26749, "solvent": 23735, "vapor": 20064, "ligand": 27854, "archangel": 28185, "reinforcement": 23895, "[unused725]": 730, "ordnance": 14445, "salim": 27490, "bedside": 19475, "stables": 16232, "southern": 2670, "own": 2219, "##h": 2232, "travelled": 7837, "##թ": 29771, "hai": 15030, "oaxaca": 26923, "try": 3046, "partially": 6822, "padded": 20633, "songwriter": 6009, "shallow": 8467, "tsar": 17608, "doherty": 23798, "coach": 2873, "masjid": 27779, "1874": 7586, "system": 2291, "##aya": 12186, "syllable": 16353, "remote": 6556, "blackpool": 17444, "evolutionary": 12761, "airs": 14369, "mt": 11047, "transvaal": 28336, "hamburger": 24575, "match": 2674, "##arium": 17285, "sheila": 15062, "308": 24232, "dispatched": 14501, "exceed": 13467, "goth": 25976, "##ppet": 29519, "debating": 20767, "detector": 19034, "any": 2151, "follow": 3582, "participation": 6577, "oder": 27215, "tonnes": 11000, "detention": 12345, "rayon": 26810, "sabha": 11200, "gdansk": 21942, "integers": 24028, "refusal": 13948, "poured": 8542, "thom": 19438, "toyota": 11742, "alta": 23647, "sheds": 25999, "sonic": 12728, "mind": 2568, "arrival": 5508, "baritone": 14458, "layne": 22452, "義": 1936, "exotic": 12564, "pavement": 14271, "harmonica": 16527, "inaugural": 7725, "##imated": 20592, "ᵢ": 1507, "##rem": 28578, "ar": 12098, "##pc": 15042, "bismarck": 22029, "morales": 17103, "mackay": 17090, "##asia": 15396, "situ": 26179, "##ply": 22086, "boy": 2879, "truth": 3606, "espionage": 21003, "parent": 6687, "##yl": 8516, "detrimental": 29172, "wai": 23701, "farm": 3888, "ى": 1299, "dorsey": 27332, "medalist": 12968, "translit": 28468, "cushion": 22936, "electric": 3751, "##itan": 25451, "陳": 1972, "[unused410]": 415, "enduring": 16762, "##rong": 17583, "underneath": 7650, "ibm": 9980, "67": 6163, "brigades": 14589, "sundance": 20140, "flopped": 24723, "starving": 18025, "defeating": 6324, "ی": 1309, "interrupted": 7153, "dove": 10855, "rafe": 15819, "memories": 5758, "inmate": 24467, "gage": 10012, "whipped": 12428, "stimulus": 19220, "##ocating": 27483, "tormented": 29026, "ventura": 21151, "##80": 17914, "icons": 18407, "gardens": 5822, "structure": 3252, "surviving": 6405, "starved": 26042, "darrell": 23158, "##ᆷ": 30023, "hindwings": 15998, "falcons": 14929, "entrepreneurs": 17633, "xinjiang": 25904, "canberra": 13107, "break": 3338, "branded": 11180, "agriculture": 5237, "recent": 3522, "number": 2193, "impetus": 27961, "[unused77]": 78, "owners": 5608, "meta": 18804, "baths": 19692, "dracula": 18500, "frontier": 8880, "##lved": 26832, "removes": 20362, "忠": 1852, "[unused478]": 483, "entry": 4443, "ultimate": 7209, "depend": 12530, "##verance": 21998, "outlawed": 29131, "ii": 2462, "[unused799]": 804, "macarthur": 17719, "metro": 6005, "termed": 12061, "lettering": 25782, "numb": 15903, "site": 2609, "pioneer": 7156, "pamphlets": 24752, "clustered": 25221, "modest": 10754, "##ght": 13900, "[unused456]": 461, "writer": 3213, "skies": 15717, "annie": 8194, "白": 1915, "##raus": 25965, "last": 2197, "privileges": 14310, "##lham": 25968, "##evich": 16277, "temps": 29023, "petition": 9964, "¤": 1070, "maze": 15079, "##ella": 8411, "men": 2273, "palestinian": 9302, "fresh": 4840, "livelihood": 24585, "ь": 1207, "trainer": 10365, "##500": 29345, "##vo": 6767, "extra": 4469, "##color": 18717, "weightlifting": 29305, "dana": 11271, "##ts": 3215, "recruiting": 14357, "は": 1672, "consistent": 8335, "mcmahon": 17741, "refers": 5218, "版": 1907, "##yana": 16811, "dominated": 6817, "670": 25535, "fuji": 20933, "taxes": 7773, "cache": 17053, "swollen": 13408, "prove": 6011, "psycho": 18224, "##ब": 29865, "##ტ": 29989, "prone": 13047, "globalization": 24370, "classroom": 9823, "cloak": 11965, "##ץ": 29808, "sexes": 21024, "heaved": 19970, "anthology": 9637, "##nche": 26091, "subcommittee": 18052, "hooper": 23717, "http": 8299, "childless": 26983, "205": 16327, "stocks": 15768, "uttar": 14940, "jared": 8334, "##lette": 27901, "contradictory": 27894, "##kari": 20224, "formula": 5675, "eduardo": 14846, "bullets": 10432, "refinery": 21034, "lou": 10223, "##tility": 18724, "kin": 12631, "benedictine": 21139, "orb": 19607, "carolina": 3792, "ensuring": 12725, "orthogonal": 28721, "convection": 23849, "##lit": 15909, "magical": 8687, "engineer": 3992, "##cable": 21170, "vp": 21210, "arises": 18653, "harvey": 7702, "attracted": 6296, "malaysia": 6027, "х": 1200, "3rd": 3822, "55th": 29075, "arthur": 4300, "sydney": 3994, "pubs": 23598, "eroded": 23300, "sutra": 26567, "domination": 17882, "##dicate": 16467, "warmed": 17336, "clasped": 16763, "serving": 3529, "abbott": 14455, "fellows": 13572, "handled": 8971, "allegedly": 9382, "apparel": 26278, "三": 1741, "fifa": 5713, "ligament": 25641, "ل": 1294, "##zuki": 24015, "##™": 30108, "islanders": 16422, "##jet": 15759, "gloria": 10778, "taunton": 28181, "crossover": 16335, "daniel": 3817, "ニ": 1716, "count": 4175, "meritorious": 22053, "blinded": 20641, "480": 17295, "ser": 14262, "fulfill": 13883, "berger": 16758, "syed": 19740, "[unused817]": 822, "andersen": 18308, "仮": 1761, "vaudeville": 19698, "1963": 3699, "generators": 16937, "pull": 4139, "unbelievable": 23653, "fred": 5965, "scrubbed": 27820, "##ᴰ": 30028, "hysteria": 29004, "##roller": 26611, "shareholder": 18668, "vampire": 4393, "##な": 30193, "##rix": 17682, "##ப": 29924, "fission": 27521, "explaining": 9990, "gonna": 6069, "[unused262]": 267, "licensing": 13202, "1854": 8421, "themed": 11773, "[unused585]": 590, "[unused776]": 781, "zebra": 29145, "yield": 10750, "spores": 23763, "chennai": 12249, "wren": 16255, "massif": 24875, "john": 2198, "aboriginal": 9757, "wore": 5078, "[unused564]": 569, "[unused28]": 29, "curator": 13023, "judas": 25326, "horton": 18469, "billion": 4551, "##ps": 4523, "rosemary": 18040, "loan": 5414, "[unused229]": 234, "quinn": 8804, "##iji": 27821, "normal": 3671, "##cr": 26775, "conducted": 4146, "polymers": 27216, "mrs": 3680, "レ": 1734, "drowning": 14759, "unaffected": 24720, "gesture": 9218, "⊆": 1611, "##合": 30318, "lure": 17256, "comparative": 12596, "puff": 23893, "##∧": 30129, "pages": 5530, "411": 27517, "exchanges": 15800, "peered": 10757, "chords": 18495, "little": 2210, "samurai": 16352, "educated": 5161, "u": 1057, "somme": 25158, "nephew": 7833, "ludwig": 10302, "assortment": 26285, "nino": 20801, "##oc": 10085, "undergoing": 14996, "tulsa": 16631, "hurrying": 27951, "##ssee": 29522, "187": 19446, "##inski": 19880, "##ero": 10624, "stimulation": 20858, "##tle": 9286, "della": 8611, "fraud": 9861, "felt": 2371, "technology": 2974, "singleton": 28159, "african": 3060, "##yse": 23274, "every": 2296, "prayer": 7083, "blonde": 9081, "sphinx": 27311, "##cats": 19588, "derivatives": 16942, "tripoli": 21841, "##ivity": 7730, "dead": 2757, "knob": 16859, "##thy": 16921, "→": 1585, "confront": 14323, "opted": 12132, "sway": 17812, "nothing": 2498, "managers": 10489, "[unused338]": 343, "obesity": 24552, "jews": 5181, "embroidered": 23590, "stumbling": 19730, "carving": 18441, "[unused80]": 81, "obe": 15578, "populated": 10357, "legitimacy": 22568, "follows": 4076, "researcher": 10753, "rejection": 13893, "岡": 1832, "depression": 6245, "33": 3943, "wrap": 10236, "ol": 19330, "##中": 30272, "prohibited": 10890, "##de": 3207, "harsh": 8401, "nix": 23330, "stripping": 23987, "saratoga": 23136, "rr": 25269, "keyboard": 9019, "coordinated": 14206, "⁷": 1541, "evolve": 19852, "##tained": 28055, "##eem": 21564, "fraser": 9443, "greatest": 4602, "babe": 11561, "explored": 10641, "satisfied": 8510, "coyote": 20457, "except": 3272, "##nt": 3372, "urbana": 27929, "placing": 6885, "##met": 11368, "ট": 1359, "##rians": 23543, "bathing": 17573, "##lets": 13461, "##bourne": 11634, "sources": 4216, "acquisitions": 19530, "laval": 26205, "neutrality": 21083, "##ses": 8583, "buttons": 11287, "[unused258]": 263, "math": 8785, "bracing": 25919, "affiliate": 8727, "violins": 25877, "sweep": 11740, "bahn": 17392, "yang": 8675, "puppet": 13997, "theatre": 3004, "followers": 8771, "pregnancy": 10032, "##ify": 8757, "romania": 6339, "เ": 1423, "extracts": 27059, "about": 2055, "pandit": 29331, "211": 19235, "abandon": 10824, "liverpool": 6220, "syn": 19962, "facility": 4322, "controllers": 21257, "##les": 4244, "toulouse": 17209, "female": 2931, "hopped": 17230, "mysteries": 15572, "##rg": 10623, "aerodrome": 23843, "intruder": 22841, "este": 28517, "cryptic": 26483, "albums": 4042, "estimated": 4358, "nicholls": 27043, "salvation": 12611, "suspended": 6731, "##nen": 10224, "glacier": 10046, "solo": 3948, "ushered": 23815, "grossing": 18244, "##kon": 19648, "accommodation": 11366, "observers": 14009, "backs": 10457, "dia": 22939, "sequels": 25815, "##claiming": 27640, "rooster": 27681, "shock": 5213, "rochester": 10541, "mosques": 21922, "barbie": 22635, "weekend": 5353, "tailed": 14578, "airborne": 10519, "enthusiastically": 24935, "wreckage": 21056, "craving": 26369, "##fi": 8873, "valencia": 13083, "maharaja": 21609, "nrhp": 22424, "##lei": 23057, "978": 4891, "trust": 3404, "spectra": 29237, "rewarded": 14610, "b": 1038, "testify": 19919, "assembly": 3320, "spaces": 7258, "ო": 1450, "##get": 18150, "##minster": 24431, "##logic": 27179, "gladstone": 21765, "seattle": 5862, "texas": 3146, "instinctively": 16607, "prose": 12388, "creeks": 24974, "elias": 14579, "##eron": 26534, "600": 5174, "suppliers": 20141, "267": 25491, "bop": 29432, "boomed": 28908, "accelerated": 14613, "eco": 17338, "cemeteries": 20973, "555": 29541, "someplace": 24956, "##pia": 19312, "1200": 14840, "semantics": 28081, "supreme": 4259, "##stle": 22516, "mama": 9588, "##kata": 29123, "ochreous": 23474, "jagged": 18187, "superhuman": 27061, "mahmud": 25886, "areas": 2752, "install": 16500, "candace": 22905, "hour": 3178, "antonia": 24272, "syriac": 24109, "atmospheric": 12483, "focal": 15918, "ominous": 23504, "kolkata": 13522, "walk": 3328, "▪": 1618, "similarly": 6660, "##tee": 17389, "med": 19960, "hangs": 17991, "poe": 18922, "##ckman": 24080, "##stellar": 29028, "govt": 22410, "ito": 23333, "##cos": 13186, "ɛ": 1115, "choking": 18329, "##ys": 7274, "renewed": 9100, "salem": 10389, "##beat": 19442, "emerging": 8361, "winds": 7266, "libel": 26201, "telling": 4129, "indifference": 25920, "warm": 4010, "[unused514]": 519, "##mation": 28649, "methodist": 8938, "##ᅢ": 30007, "##hered": 27190, "slowing": 18068, "satisfy": 13225, "henri": 8863, "erika": 24900, "##anger": 25121, "cheney": 23745, "crew": 3626, "lineage": 13321, "[unused924]": 929, "##ror": 29165, "serb": 20180, "tricked": 24929, "swimming": 5742, "##aco": 22684, "exhaust": 15095, "geometridae": 24687, "parts": 3033, "##pus": 12207, "finding": 4531, "spirited": 24462, "substances": 13978, "placed": 2872, "insertion": 23851, "frightened": 10363, "##tyn": 25680, "surrounding": 4193, "274": 25586, "mcgill": 17919, "tal": 21368, "robe": 11111, "amtrak": 20208, "rover": 13631, "banned": 7917, "⅔": 1582, "##nova": 13455, "##utus": 23998, "none": 3904, "cavendish": 23570, "secondly": 16378, "grandma": 13055, "honeymoon": 19227, "nests": 17415, "sanford": 21153, "investments": 10518, "burton": 9658, "##女": 30341, "hartford": 13381, "whitney": 9809, "##ₖ": 30094, "leighton": 26873, "##aud": 19513, "ٹ": 1301, "##ckle": 19250, "##hs": 7898, "266": 25162, "clutched": 13514, "##wc": 16526, "##poulos": 24662, "##wski": 10344, "search": 3945, "explode": 15044, "prompted": 9469, "writes": 7009, "co": 2522, "immigrants": 7489, "↑": 1584, "コ": 1704, "calvin": 11130, "1695": 29140, "intricate": 17796, "lester": 14131, "fjord": 26158, "podium": 14502, "weren": 4694, "younger": 3920, "130": 7558, "profits": 11372, "muttered": 6250, "prix": 5431, "downloads": 22956, "thirsty": 24907, "grasping": 20854, "waterfalls": 24236, "fulfilled": 16829, "##phonic": 27385, "peg": 25039, "[unused885]": 890, "##omo": 19506, "##firmed": 23141, "hereditary": 14800, "nellie": 25365, "directorate": 13634, "##(": 29619, "headlining": 26533, "jacket": 6598, "^": 1034, "studies": 2913, "enthusiast": 29550, "maccabi": 24055, "[unused308]": 313, "fingered": 28842, "baden": 12189, "atoms": 13353, "supervisory": 26653, "revenge": 7195, "mormon": 15111, "biplane": 28686, "kentucky": 5612, "locke": 18343, "knowing": 4209, "new": 2047, "##ʒ": 29704, "pierced": 16276, "opportunity": 4495, "muse": 18437, "lists": 7201, "đ": 1102, "governmental": 10605, "##oran": 18842, "##›": 30068, "##ctors": 24817, "pronounced": 8793, "ideal": 7812, "stall": 13498, "inhibitors": 25456, "cultural": 3451, "ufc": 11966, "joao": 16304, "altitude": 7998, "strong": 2844, "steal": 8954, "winfield": 24739, "[unused951]": 956, "pavel": 18635, "ョ": 1730, "swat": 25414, "weddings": 20429, "e": 1041, "ia": 24264, "post": 2695, "risky": 19188, "##mmer": 15810, "northwestern": 7855, "evil": 4763, "##gra": 17643, "cadet": 12738, "minions": 28071, "##道": 30483, "treasure": 8813, "swapped": 29176, "##ils": 12146, "agents": 6074, "ャ": 1728, "jaw": 5730, "smartphone": 26381, "speculation": 12143, "affiliated": 6989, "alabama": 6041, "##bis": 18477, "tracks": 3162, "biographical": 16747, "straight": 3442, "ர": 1391, "katharine": 25739, "##oked": 23461, "ethnicity": 18240, "dunkirk": 29467, "[unused423]": 428, "influence": 3747, "hash": 23325, "##nam": 13129, "speculative": 23250, "bridge": 2958, "speaking": 4092, "definite": 15298, "fortunately": 14599, "brent": 12895, "minute": 3371, "##his": 24158, "communion": 15661, "oricon": 22237, "subsidiary": 7506, "icc": 16461, "1835": 10150, "radioactive": 17669, "giant": 5016, "felony": 24648, "flashbacks": 28945, "looming": 23430, "reckon": 29072, "transform": 10938, "eastwood": 24201, "catalytic": 26244, "1843": 10075, "##hip": 5605, "presses": 14616, "supported": 3569, "temporal": 15850, "mahogany": 23867, "gwen": 11697, "chat": 11834, "ramirez": 15206, "manages": 9020, "classmate": 23175, "pockets": 10306, "nicola": 17388, "[unused521]": 526, "##dian": 11692, "correspondence": 11061, "[unused99]": 104, "##awa": 10830, "cai": 29080, "reasons": 4436, "##sel": 11246, "ryan": 4575, "walnut": 18489, "hebrew": 6836, "challenges": 7860, "bays": 13933, "##ested": 17944, "##堂": 30331, "goofy": 27243, "dignity": 13372, "burials": 23109, "2010s": 26817, "weather": 4633, "regulator": 21618, "newfoundland": 11944, "struggled": 6915, "propeller": 15692, "planet": 4774, "thoroughly": 12246, "glamour": 22439, "youths": 19634, "##onzo": 29452, "mma": 21021, "##oz": 18153, "nationally": 9582, "sevilla": 29363, "irving": 12415, "arjun": 26024, "311": 23532, "intimacy": 20893, "petty": 11612, "##ɪ": 29685, "toxic": 11704, "convictions": 20488, "##idia": 29342, "abbey": 6103, "1800s": 19878, "took": 2165, "referendum": 9782, "remarkable": 9487, "catalan": 13973, "biographer": 17121, "returns": 5651, "matt": 4717, "simeon": 24371, "cancer": 4456, "crawl": 13529, "690": 28066, "吉": 1793, "handle": 5047, "rebranded": 18233, "donald": 6221, "proved": 4928, "episodes": 4178, "egyptians": 23437, "riot": 11421, "elaborate": 9603, "quality": 3737, "##orum": 20527, "hussein": 16543, "linen": 17517, "stanza": 29509, "recognition": 5038, "indicates": 7127, "##peed": 25599, "honour": 6225, "competitors": 10159, "ς": 1172, "rested": 8614, "quadrant": 29371, "archery": 21383, "島": 1833, "counter": 4675, "龸": 1983, "larvae": 9673, "attractive": 8702, "##rained": 27361, "cantata": 23629, "keys": 6309, "avant": 14815, "replies": 14054, "substance": 9415, "##德": 30374, "subordinate": 15144, "terms": 3408, "insects": 9728, "economies": 18730, "chloe": 9318, "filming": 7467, "dominating": 21949, "violin": 6710, "1900s": 16430, "denying": 16039, "inline": 23881, "##mis": 15630, "burden": 10859, "indians": 6505, "complex": 3375, "sgt": 17001, "bolt": 10053, "##mum": 27147, "tan": 9092, "origin": 4761, "gerald": 9659, "##ikh": 28209, "1679": 27924, "##kit": 23615, "ao": 20118, "used": 2109, "nikita": 29106, "propaganda": 10398, "##ill": 8591, "depictions": 20818, "neighbour": 20065, "nixon": 11296, "foreigners": 15040, "gladly": 24986, "beers": 18007, "iraqi": 8956, "mineral": 9754, "titus": 18828, "teenage": 9454, "anxiety": 10089, "##正": 30414, "₅": 1552, "biblical": 10213, "views": 5328, "brains": 14332, "男": 1912, "b1": 29491, "##agh": 17988, "differently": 11543, "fronts": 21430, "福": 1926, "leafs": 21349, "jacques": 7445, "1699": 28718, "solos": 24339, "hoping": 5327, "dar": 18243, "##uf": 16093, "rival": 6538, "##igan": 10762, "calais": 23116, "assumes": 15980, "ale": 15669, "strongly": 6118, "↔": 1587, "passport": 12293, "straightforward": 19647, "tc": 22975, "##ngo": 16656, "audience": 4378, "[unused848]": 853, "walled": 17692, "##ata": 6790, "busted": 23142, "pouring": 13053, "domestically": 27143, "members": 2372, "terrorist": 9452, "##¡": 29644, "advanced": 3935, "devout": 26092, "palm": 5340, "cain": 11557, "shatter": 27271, "161": 17365, "abolitionist": 29554, "umar": 27981, "assistance": 5375, "bert": 14324, "evenly": 18030, "hawthorne": 23440, "##pis": 18136, "flicked": 12777, "abrupt": 18772, "chocolate": 7967, "slams": 25967, "opined": 26084, "##58": 27814, "administrators": 15631, "mantra": 25951, "##ched": 7690, "trained": 4738, "felicity": 27357, "nano": 28991, "flag": 5210, "certificates": 17987, "argument": 6685, "showcased": 22443, "wound": 6357, "decisions": 6567, "fireworks": 16080, "garden": 3871, "labour": 4428, "broadcasters": 18706, "ص": 1284, "finn": 9303, "1877": 7557, "##分": 30301, "[unused635]": 640, "ns": 24978, "lured": 26673, "patti": 22732, "##chfield": 22693, "vegetarian": 23566, "drinking": 5948, "rejects": 19164, "massive": 5294, "mandy": 18193, "prized": 25695, "ignoring": 9217, "evans": 6473, "martha": 9246, "blouse": 18149, "launches": 18989, "##app": 29098, "##wear": 16689, "constructed": 3833, "elements": 3787, "exist": 4839, "subject": 3395, "poked": 16826, "メ": 1726, "statutory": 15201, "willoughby": 24919, "framed": 10366, "##ᄂ": 29992, "twins": 8178, "security": 3036, "##guide": 28582, "orders": 4449, "bobbie": 27731, "[unused202]": 207, "felix": 8383, "petrol": 17141, "abnormal": 19470, "##≈": 30133, "rf": 21792, "sweating": 18972, "mirrors": 13536, "##ound": 28819, "##yde": 18124, "wisconsin": 5273, "aero": 18440, "##tera": 14621, "##ミ": 30250, "lower": 2896, "##care": 16302, "cristina": 22246, "claimed": 3555, "ak": 17712, "patriot": 16419, "##lang": 25023, "##′": 30066, "beit": 28236, "##nza": 16786, "##icum": 22167, "pirates": 8350, "##ono": 17175, "accent": 9669, "spying": 22624, "strictly": 9975, "strand": 11226, "draught": 25349, "particularly": 3391, "haji": 28174, "land": 2455, "confinement": 21551, "slade": 18048, "compressor": 29329, "reconciled": 28348, "madison": 7063, "，": 1989, "rbis": 23583, "##ccus": 27631, "η": 1161, "##tower": 23196, "custody": 9968, "##oro": 14604, "gangs": 18542, "神": 1925, "[unused666]": 671, "₆": 1553, "conditioning": 14372, "purchases": 17402, "motorola": 29583, "vane": 23334, "##esian": 25253, "lehigh": 23241, "benjamin": 6425, "carp": 29267, "ள": 1393, "symposium": 17899, "professor": 2934, "monograph": 24039, "engraved": 16328, "##）": 30514, "edmond": 21773, "chimneys": 28885, "gaps": 16680, "circled": 14867, "utilize": 16462, "arizona": 5334, "##bbs": 17226, "promises": 10659, "despised": 26626, "##riz": 21885, "refusing": 11193, "deception": 17575, "mainland": 8240, "outburst": 27719, "illustration": 14614, "tumors": 21434, "##late": 13806, "hagen": 24047, "##dna": 28911, "wo": 24185, "meadow": 13244, "stored": 8250, "snapped": 5941, "characteristics": 6459, "##ate": 3686, "disabled": 9776, "##raße": 27807, "extended": 3668, "₤": 1572, "ropes": 14607, "paz": 18183, "blond": 8855, "gripping": 13940, "bahamas": 17094, "negligence": 27988, "[unused162]": 167, "succeeding": 13034, "[unused617]": 622, "unarmed": 23206, "momma": 23603, "simmons": 13672, "lazy": 13971, "offended": 15807, "munitions": 21061, "wta": 21925, "awful": 9643, "##陳": 30498, "respiratory": 16464, "stacy": 18566, "threaten": 15686, "alexa": 24969, "touching": 7244, "cycle": 5402, "##kushima": 24917, "routledge": 21180, "blushed": 19370, "crowd": 4306, "##itated": 15198, "##ɐ": 29676, "graf": 22160, "安": 1820, "fucking": 8239, "closure": 8503, "##edd": 22367, "車": 1954, "mollusk": 13269, "label": 3830, "peacefully": 21614, "archives": 8264, "invaded": 10836, "gymnastics": 14002, "aquino": 24183, "71": 6390, "wishing": 10261, "loren": 28779, "stains": 27094, "wryly": 28325, "##dai": 21351, "solve": 9611, "##tman": 22942, "nascar": 11838, "skater": 18815, "auditory": 28042, "featherweight": 27145, "voss": 24878, "persistent": 14516, "07": 5718, "indicator": 17245, "absence": 6438, "register": 4236, "nodded": 3368, "himalayas": 26779, "[unused657]": 662, "feeder": 21429, "metaphor": 19240, "dakota": 7734, "negotiate": 13676, "columbia": 3996, "[unused570]": 575, "dancers": 10487, "differentiate": 21032, "##otto": 23052, "mickey": 11021, "kilda": 22633, "habit": 10427, "town": 2237, "##tic": 4588, "molecules": 10737, "strung": 23509, "lowland": 15234, "prostitute": 19215, "[unused886]": 891, "hunts": 28526, "alison": 12684, "plata": 19534, "callie": 20072, "1845": 9512, "cbs": 6568, "erratic": 24122, "skeleton": 13526, "hon": 10189, "##riety": 27840, "headed": 3753, "treason": 14712, "##№": 30106, "##ி": 29932, "##lusion": 24117, "1629": 27882, "imaginative": 28575, "budge": 24981, "advisors": 18934, "bis": 20377, "clue": 9789, "良": 1938, "##mbo": 13344, "multiplied": 28608, "bombay": 11831, "greeted": 11188, "colby": 18650, "country": 2406, "eleventh": 11911, "hypothesis": 10744, "tapped": 10410, "version": 2544, "##ide": 5178, "pry": 29198, "sept": 17419, "uv": 23068, "richie": 14411, "belief": 6772, "exile": 8340, "insulted": 23637, "visual": 5107, "doctrines": 23252, "devon": 7614, "federico": 20493, "playful": 18378, "miss": 3335, "purification": 28406, "##-": 29624, "voluntarily": 17912, "homage": 14822, "class": 2465, "lab": 6845, "mental": 5177, "chimney": 17321, "requirements": 5918, "quinlan": 28451, "অ": 1347, "jocelyn": 23786, "##ieri": 21939, "[unused122]": 127, "arrested": 4727, "##60": 16086, "creatures": 7329, "##য": 29907, "overboard": 27089, "anal": 20302, "generals": 11593, "##∗": 30125, "##ович": 16198, "postage": 22981, "novi": 21574, "versailles": 18346, "armies": 8749, "hence": 6516, "padres": 21577, "illinois": 4307, "situations": 8146, "injunction": 22928, "[unused613]": 618, "kiran": 22403, "externally": 27223, "nmi": 22484, "##ט": 29795, "ict": 25891, "##nne": 10087, "##mity": 16383, "ม": 1415, "khmer": 19472, "dish": 9841, "##三": 30267, "##itaire": 29422, "##maid": 28478, "##han": 4819, "##tered": 14050, "investors": 9387, "crack": 8579, "##ple": 10814, "submitted": 7864, "##yin": 25811, "breathing": 5505, "western": 2530, "ck": 23616, "brittle": 24650, "unused": 15171, "proficiency": 26293, "##igo": 14031, "timing": 10984, "″": 1532, "turkey": 4977, "pepper": 11565, "207": 19843, "bahia": 22474, "apologize": 12134, "classics": 10002, "leinster": 15684, "membrane": 10804, "gnu": 27004, "##erated": 16848, "dhaka": 16479, "compares": 22963, "yuki": 24924, "comte": 19758, "bulletin": 13146, "dawn": 6440, "encoding": 17181, "##lich": 18337, "##hammer": 19742, "calm": 5475, "cabinet": 5239, "cut": 3013, "unbroken": 29505, "children": 2336, "1995": 2786, "blown": 10676, "[unused362]": 367, "[unused523]": 528, "slice": 14704, "banks": 5085, "governorate": 15162, "dynasty": 5321, "##laus": 28128, "##channel": 26058, "norris": 15466, "maddox": 22730, "ᅪ": 1476, "aimee": 23551, "playback": 18245, "everything": 2673, "1980s": 3865, "##cc": 9468, "presenter": 10044, "diverted": 18356, "gritted": 17307, "₎": 1559, "microphone": 15545, "rabbit": 10442, "familiarity": 24666, "convertible": 22840, "##高": 30507, "[unused669]": 674, "missions": 6416, "darkening": 27862, "##ulum": 25100, "forehead": 6130, "nsw": 11524, "##hale": 15238, "spared": 16891, "neumann": 22860, "46": 4805, "yourself": 4426, "intervals": 14025, "yankee": 17652, "globe": 7595, "[unused795]": 800, "ʎ": 1135, "[unused15]": 16, "seymour": 13254, "##eki": 26576, "ethiopia": 11154, "steward": 17946, "##thi": 15222, "tabitha": 21581, "##puram": 17809, "##!": 29612, "[unused849]": 854, "rangers": 7181, "protocol": 8778, "##fur": 27942, "##port": 6442, "suicide": 5920, "##roved": 26251, "##ora": 6525, "enormous": 8216, "doesn": 2987, "##fusion": 20523, "shame": 9467, "supplemental": 27024, "living": 2542, "1653": 29309, "altar": 9216, "snuggled": 26867, "michaels": 17784, "innsbruck": 28914, "connections": 7264, "147": 16471, "plan": 2933, "jake": 5180, "##oja": 22918, "grounded": 16764, "bradshaw": 23762, "phi": 13569, "downs": 12482, "poisonous": 22641, "bonds": 9547, "chaotic": 19633, "₉": 1556, "forrest": 16319, "sheridan": 13243, "rift": 16931, "namibia": 15408, "knocked": 6573, "##瀬": 30431, "plead": 25803, "fremantle": 20358, "##ي": 14498, "harrisburg": 24569, "objected": 15959, "app": 10439, "disliked": 18966, "##belt": 21561, "rotting": 22005, "relate": 14396, "introduce": 8970, "slaughtered": 23044, "##sund": 25168, "hurley": 25124, "erroneously": 29411, "1712": 28460, "pattern": 5418, "scalp": 21065, "gustav": 13430, "criminal": 4735, "digitally": 18397, "reflective": 21346, "##qing": 19784, "##hos": 15006, "##max": 17848, "খ": 1354, "##yan": 7054, "overwhelmingly": 24783, "vikram": 29063, "dawson": 11026, "[unused837]": 842, "safety": 3808, "retirement": 5075, "shelter": 7713, "temptation": 17232, "##rove": 17597, "posting": 14739, "satisfying": 17087, "thanked": 15583, "##iidae": 15648, "afb": 16909, "skeletal": 20415, "##oton": 25862, "complied": 26946, "##rud": 28121, "scrambling": 25240, "essence": 11305, "technical": 4087, "##ructured": 26134, "##rative": 18514, "⁶": 1540, "barnes": 9957, "##“": 30058, "335": 24426, "april": 2258, "thailand": 6504, "votes": 4494, "perished": 23181, "coleman": 11608, "repairing": 26296, "greyish": 26916, "##mium": 27759, "oversized": 21698, "##অ": 29883, "reprinted": 13603, "rumors": 11256, "gilles": 21717, "##and": 5685, "##ring": 4892, "[unused839]": 844, "stalled": 20659, "demonstrate": 10580, "##antly": 15706, "housemates": 28152, "ნ": 1449, "they": 2027, "treated": 5845, "wizard": 10276, "sail": 9498, "##am": 3286, "##llation": 20382, "republic": 3072, "brno": 28634, "elderly": 9750, "enrichment": 27226, "guinness": 17323, "symbolic": 12613, "proportion": 10817, "raced": 8255, "##itate": 17570, "silky": 18848, "protecting": 8650, "prevalence": 20272, "[unused608]": 613, "certification": 10618, "husbands": 19089, "analysis": 4106, "fenton": 27096, "beaches": 12212, "##lr": 20974, "জ": 1358, "statistical": 7778, "uncovered": 14486, "evacuation": 13982, "russ": 18072, "##eding": 17819, "##镇": 30492, "ि": 1341, "horizontally": 23190, "sharing": 6631, "ه": 1297, "kennedy": 5817, "encompass": 25281, "bundesliga": 14250, "monroe": 9747, "lizards": 23898, "##oes": 22504, "##orro": 29459, "##世": 30271, "##cius": 25393, "[unused55]": 56, "slicing": 26514, "interfere": 15115, "##ndi": 16089, "affiliates": 18460, "29": 2756, "##awan": 25903, "folly": 26272, "arrogant": 15818, "##urities": 29366, "ব": 1368, "mythological": 21637, "unpaid": 23850, "jailed": 21278, "ruiz": 18773, "##đ": 29671, "devlin": 24389, "celine": 24550, "button": 6462, "##zos": 28370, "twelve": 4376, "173": 19410, "arabia": 9264, "coordinator": 10669, "##ment": 3672, "subsistence": 27667, "##force": 14821, "##cer": 17119, "ann": 5754, "relaunched": 26391, "accents": 24947, "##omic": 22026, "attorneys": 16214, "fields": 4249, "administering": 28965, "##ail": 12502, "keane": 27228, "massachusetts": 4404, "twin": 5519, "kala": 26209, "plot": 5436, "liv": 22135, "##ße": 17499, "feng": 19004, "208": 18512, "decidedly": 27873, "trey": 14826, "mast": 15429, "瀬": 1905, "martial": 7761, "examples": 4973, "sebastian": 6417, "41st": 24233, "utopia": 26425, "distinction": 7835, "tug": 12888, "xander": 29019, "bubba": 19606, "buddies": 24115, "duchy": 11068, "[unused230]": 235, "propulsion": 16404, "nature": 3267, "wrapping": 12252, "##ham": 3511, "bruins": 18159, "uc": 15384, "262": 21950, "##bas": 22083, "##nl": 20554, "distortion": 20870, "wa": 11333, "cole": 5624, "san": 2624, "equivalent": 5662, "cal": 10250, "sediments": 20476, "soup": 11350, "squinted": 17425, "lightning": 7407, "marcos": 14810, "restraining": 28285, "detectors": 25971, "monument": 6104, "lullaby": 29149, "implied": 13339, "honduras": 14373, "sherry": 22268, "##top": 14399, "##ا": 25573, "frederick": 5406, "une": 16655, "##aia": 27131, "millennia": 27620, "detonated": 28110, "[unused806]": 811, "pete": 6969, "intact": 10109, "filippo": 28669, "ا": 1270, "lawsuit": 9870, "sensed": 10596, "breached": 25769, "narrative": 7984, "upward": 10745, "hercules": 15067, "##cht": 10143, "##nidae": 29135, "polka": 29499, "shaping": 20300, "ₐ": 1560, "attire": 20426, "chicken": 7975, "barbed": 25007, "favorites": 20672, "staggering": 26233, "edna": 21051, "1904": 5692, "[unused264]": 269, "expresses": 16783, "[unused703]": 708, "walters": 19097, "anthropologist": 21571, "治": 1900, "1988": 2997, "rid": 9436, "market": 3006, "exposure": 7524, "##ivar": 28739, "##loid": 27710, "##ng": 3070, "sensation": 8742, "fridge": 16716, "exceeding": 17003, "iteration": 27758, "##ability": 8010, "dangling": 18737, "spanning": 13912, "spirit": 4382, "tracking": 9651, "slow": 4030, "orbital": 13943, "paragraph": 20423, "##bbed": 15499, "##ulator": 20350, "viruses": 18191, "turks": 12896, "jump": 5376, "only": 2069, "opium": 21075, "quotes": 16614, "##uel": 16284, "derivative": 13819, "sheffield": 8533, "necessary": 4072, "selma": 28112, "##how": 14406, "##rne": 12119, "summers": 10945, "priest": 5011, "danzig": 26669, "photographer": 8088, "airplay": 15341, "##ues": 15808, "##⁷": 30076, "ages": 5535, "ュ": 1729, "##oria": 11069, "jaime": 14519, "charities": 15430, "screenwriter": 11167, "russia": 3607, "ahmed": 10208, "phase": 4403, "rebuilt": 7183,
[...]
